{
  "version": "1.0",
  "truncation": null,
  "padding": null,
  "added_tokens": [
    {
      "id": 0,
      "special": true,
      "content": "<cls>",
      "single_word": false,
      "lstrip": false,
      "rstrip": false,
      "normalized": false
    },
    {
      "id": 1,
      "special": true,
      "content": "<pad>",
      "single_word": false,
      "lstrip": false,
      "rstrip": false,
      "normalized": false
    },
    {
      "id": 2,
      "special": true,
      "content": "<unk>",
      "single_word": false,
      "lstrip": false,
      "rstrip": false,
      "normalized": false
    },
    {
      "id": 3,
      "special": true,
      "content": "<mask>",
      "single_word": false,
      "lstrip": false,
      "rstrip": false,
      "normalized": false
    },
    {
      "id": 4,
      "special": true,
      "content": "</s>",
      "single_word": false,
      "lstrip": false,
      "rstrip": false,
      "normalized": false
    }
  ],
  "normalizer": null,
  "pre_tokenizer": {
    "type": "Whitespace"
  },
  "post_processor": {
    "type": "TemplateProcessing",
    "single": [
      {
        "SpecialToken": {
          "id": "<cls>",
          "type_id": 0
        }
      },
      {
        "Sequence": {
          "id": "A",
          "type_id": 0
        }
      },
      {
        "SpecialToken": {
          "id": "</s>",
          "type_id": 0
        }
      }
    ],
    "pair": [
      {
        "SpecialToken": {
          "id": "<cls>",
          "type_id": 0
        }
      },
      {
        "Sequence": {
          "id": "A",
          "type_id": 0
        }
      },
      {
        "SpecialToken": {
          "id": "</s>",
          "type_id": 0
        }
      },
      {
        "SpecialToken": {
          "id": "</s>",
          "type_id": 0
        }
      },
      {
        "Sequence": {
          "id": "B",
          "type_id": 1
        }
      },
      {
        "SpecialToken": {
          "id": "</s>",
          "type_id": 1
        }
      }
    ],
    "special_tokens": {
      "</s>": {
        "id": "</s>",
        "ids": [
          4
        ],
        "tokens": [
          "</s>"
        ]
      },
      "<cls>": {
        "id": "<cls>",
        "ids": [
          0
        ],
        "tokens": [
          "<cls>"
        ]
      }
    }
  },
  "decoder": null,
  "model": {
    "type": "BPE",
    "dropout": null,
    "unk_token": null,
    "continuing_subword_prefix": null,
    "end_of_word_suffix": null,
    "fuse_unk": false,
    "vocab": {
      "<cls>": 0,
      "<pad>": 1,
      "<unk>": 2,
      "<mask>": 3,
      "</s>": 4,
      "\u0002": 5,
      "!": 6,
      "\"": 7,
      "#": 8,
      "$": 9,
      "%": 10,
      "&": 11,
      "'": 12,
      "(": 13,
      ")": 14,
      "*": 15,
      "+": 16,
      ",": 17,
      "-": 18,
      ".": 19,
      "/": 20,
      "0": 21,
      "1": 22,
      "2": 23,
      "3": 24,
      "4": 25,
      "5": 26,
      "6": 27,
      "7": 28,
      "8": 29,
      "9": 30,
      ":": 31,
      ";": 32,
      "<": 33,
      "=": 34,
      ">": 35,
      "?": 36,
      "@": 37,
      "A": 38,
      "B": 39,
      "C": 40,
      "D": 41,
      "E": 42,
      "F": 43,
      "G": 44,
      "H": 45,
      "I": 46,
      "J": 47,
      "K": 48,
      "L": 49,
      "M": 50,
      "N": 51,
      "O": 52,
      "P": 53,
      "Q": 54,
      "R": 55,
      "S": 56,
      "T": 57,
      "U": 58,
      "V": 59,
      "W": 60,
      "X": 61,
      "Y": 62,
      "Z": 63,
      "[": 64,
      "\\": 65,
      "]": 66,
      "^": 67,
      "_": 68,
      "`": 69,
      "a": 70,
      "b": 71,
      "c": 72,
      "d": 73,
      "e": 74,
      "f": 75,
      "g": 76,
      "h": 77,
      "i": 78,
      "j": 79,
      "k": 80,
      "l": 81,
      "m": 82,
      "n": 83,
      "o": 84,
      "p": 85,
      "q": 86,
      "r": 87,
      "s": 88,
      "t": 89,
      "u": 90,
      "v": 91,
      "w": 92,
      "x": 93,
      "y": 94,
      "z": 95,
      "{": 96,
      "|": 97,
      "}": 98,
      "~": 99,
      "": 100,
      "": 101,
      "": 102,
      "": 103,
      "": 104,
      "": 105,
      "": 106,
      "": 107,
      "": 108,
      "": 109,
      "¡": 110,
      "¢": 111,
      "£": 112,
      "¤": 113,
      "¥": 114,
      "¦": 115,
      "§": 116,
      "¨": 117,
      "©": 118,
      "ª": 119,
      "«": 120,
      "¬": 121,
      "­": 122,
      "®": 123,
      "¯": 124,
      "°": 125,
      "±": 126,
      "²": 127,
      "³": 128,
      "´": 129,
      "µ": 130,
      "¶": 131,
      "·": 132,
      "¸": 133,
      "¹": 134,
      "º": 135,
      "»": 136,
      "¼": 137,
      "½": 138,
      "¾": 139,
      "¿": 140,
      "À": 141,
      "Á": 142,
      "Â": 143,
      "Ã": 144,
      "Ä": 145,
      "Å": 146,
      "Æ": 147,
      "Ç": 148,
      "È": 149,
      "É": 150,
      "Ê": 151,
      "Ë": 152,
      "Ì": 153,
      "Í": 154,
      "Î": 155,
      "Ï": 156,
      "Ð": 157,
      "Ñ": 158,
      "Ò": 159,
      "Ó": 160,
      "Ô": 161,
      "Õ": 162,
      "Ö": 163,
      "×": 164,
      "Ø": 165,
      "Ù": 166,
      "Ú": 167,
      "Û": 168,
      "Ü": 169,
      "Ý": 170,
      "Þ": 171,
      "ß": 172,
      "à": 173,
      "á": 174,
      "â": 175,
      "ã": 176,
      "ä": 177,
      "å": 178,
      "æ": 179,
      "ç": 180,
      "è": 181,
      "é": 182,
      "ê": 183,
      "ë": 184,
      "ì": 185,
      "í": 186,
      "î": 187,
      "ï": 188,
      "ð": 189,
      "ñ": 190,
      "ò": 191,
      "ó": 192,
      "ô": 193,
      "õ": 194,
      "ö": 195,
      "÷": 196,
      "ø": 197,
      "ù": 198,
      "ú": 199,
      "û": 200,
      "ü": 201,
      "ý": 202,
      "þ": 203,
      "ÿ": 204,
      "Ā": 205,
      "ā": 206,
      "Ă": 207,
      "ă": 208,
      "Ą": 209,
      "ą": 210,
      "Ć": 211,
      "ć": 212,
      "Ĉ": 213,
      "ĉ": 214,
      "Ċ": 215,
      "ċ": 216,
      "Č": 217,
      "č": 218,
      "Ď": 219,
      "ď": 220,
      "Đ": 221,
      "đ": 222,
      "Ē": 223,
      "ē": 224,
      "Ĕ": 225,
      "ĕ": 226,
      "Ė": 227,
      "ė": 228,
      "Ę": 229,
      "ę": 230,
      "Ě": 231,
      "ě": 232,
      "Ĝ": 233,
      "ĝ": 234,
      "Ğ": 235,
      "ğ": 236,
      "Ġ": 237,
      "ġ": 238,
      "Ģ": 239,
      "ģ": 240,
      "Ĥ": 241,
      "ĥ": 242,
      "Ħ": 243,
      "ħ": 244,
      "Ĩ": 245,
      "ĩ": 246,
      "Ī": 247,
      "ī": 248,
      "Ĭ": 249,
      "ĭ": 250,
      "Į": 251,
      "į": 252,
      "İ": 253,
      "ı": 254,
      "ĳ": 255,
      "Ĵ": 256,
      "ĵ": 257,
      "Ķ": 258,
      "ķ": 259,
      "ĸ": 260,
      "Ĺ": 261,
      "ĺ": 262,
      "Ļ": 263,
      "ļ": 264,
      "Ľ": 265,
      "ľ": 266,
      "Ŀ": 267,
      "ŀ": 268,
      "Ł": 269,
      "ł": 270,
      "Ń": 271,
      "ń": 272,
      "Ņ": 273,
      "ņ": 274,
      "Ň": 275,
      "ň": 276,
      "ŋ": 277,
      "Ō": 278,
      "ō": 279,
      "Ŏ": 280,
      "ŏ": 281,
      "Ő": 282,
      "ő": 283,
      "Œ": 284,
      "œ": 285,
      "Ŕ": 286,
      "ŕ": 287,
      "Ŗ": 288,
      "ŗ": 289,
      "Ř": 290,
      "ř": 291,
      "Ś": 292,
      "ś": 293,
      "Ŝ": 294,
      "ŝ": 295,
      "Ş": 296,
      "ş": 297,
      "Š": 298,
      "š": 299,
      "Ţ": 300,
      "ţ": 301,
      "Ť": 302,
      "ť": 303,
      "Ŧ": 304,
      "ŧ": 305,
      "Ũ": 306,
      "ũ": 307,
      "Ū": 308,
      "ū": 309,
      "Ŭ": 310,
      "ŭ": 311,
      "Ů": 312,
      "ů": 313,
      "Ű": 314,
      "ű": 315,
      "Ų": 316,
      "ų": 317,
      "Ŵ": 318,
      "ŵ": 319,
      "Ŷ": 320,
      "ŷ": 321,
      "Ÿ": 322,
      "Ź": 323,
      "ź": 324,
      "Ż": 325,
      "ż": 326,
      "Ž": 327,
      "ž": 328,
      "ſ": 329,
      "ƃ": 330,
      "Ə": 331,
      "ƒ": 332,
      "ơ": 333,
      "Ƭ": 334,
      "ư": 335,
      "ǀ": 336,
      "ǁ": 337,
      "ǂ": 338,
      "ǃ": 339,
      "ǌ": 340,
      "Ǎ": 341,
      "ǎ": 342,
      "Ǐ": 343,
      "ǐ": 344,
      "Ǒ": 345,
      "ǒ": 346,
      "Ǔ": 347,
      "ǔ": 348,
      "Ǖ": 349,
      "ǖ": 350,
      "Ǘ": 351,
      "ǘ": 352,
      "Ǚ": 353,
      "ǚ": 354,
      "Ǜ": 355,
      "ǜ": 356,
      "ǝ": 357,
      "Ǣ": 358,
      "ǣ": 359,
      "ǧ": 360,
      "Ǫ": 361,
      "ǫ": 362,
      "ǰ": 363,
      "ǽ": 364,
      "ȃ": 365,
      "Ȅ": 366,
      "Ȇ": 367,
      "Ȉ": 368,
      "Ȋ": 369,
      "ȋ": 370,
      "Ȏ": 371,
      "Ȑ": 372,
      "ȗ": 373,
      "Ș": 374,
      "ș": 375,
      "Ț": 376,
      "ț": 377,
      "Ȩ": 378,
      "Ȳ": 379,
      "ȳ": 380,
      "ɐ": 381,
      "ɑ": 382,
      "ɒ": 383,
      "ɓ": 384,
      "ɔ": 385,
      "ɕ": 386,
      "ɖ": 387,
      "ɗ": 388,
      "ɘ": 389,
      "ə": 390,
      "ɚ": 391,
      "ɛ": 392,
      "ɜ": 393,
      "ɝ": 394,
      "ɞ": 395,
      "ɟ": 396,
      "ɠ": 397,
      "ɡ": 398,
      "ɢ": 399,
      "ɣ": 400,
      "ɤ": 401,
      "ɥ": 402,
      "ɦ": 403,
      "ɧ": 404,
      "ɨ": 405,
      "ɩ": 406,
      "ɪ": 407,
      "ɫ": 408,
      "ɬ": 409,
      "ɭ": 410,
      "ɮ": 411,
      "ɯ": 412,
      "ɰ": 413,
      "ɱ": 414,
      "ɲ": 415,
      "ɳ": 416,
      "ɴ": 417,
      "ɵ": 418,
      "ɶ": 419,
      "ɸ": 420,
      "ɹ": 421,
      "ɺ": 422,
      "ɻ": 423,
      "ɽ": 424,
      "ɾ": 425,
      "ɿ": 426,
      "ʀ": 427,
      "ʁ": 428,
      "ʂ": 429,
      "ʃ": 430,
      "ʄ": 431,
      "ʇ": 432,
      "ʈ": 433,
      "ʉ": 434,
      "ʊ": 435,
      "ʋ": 436,
      "ʌ": 437,
      "ʍ": 438,
      "ʎ": 439,
      "ʏ": 440,
      "ʐ": 441,
      "ʑ": 442,
      "ʒ": 443,
      "ʔ": 444,
      "ʕ": 445,
      "ʘ": 446,
      "ʙ": 447,
      "ʛ": 448,
      "ʜ": 449,
      "ʝ": 450,
      "ʞ": 451,
      "ʟ": 452,
      "ʡ": 453,
      "ʢ": 454,
      "ʧ": 455,
      "ʨ": 456,
      "ʰ": 457,
      "ʲ": 458,
      "ʷ": 459,
      "ʻ": 460,
      "ʼ": 461,
      "ʾ": 462,
      "ʿ": 463,
      "ˀ": 464,
      "ˁ": 465,
      "ˆ": 466,
      "ˈ": 467,
      "ˉ": 468,
      "ˌ": 469,
      "ː": 470,
      "ˑ": 471,
      "˙": 472,
      "˛": 473,
      "˜": 474,
      "˝": 475,
      "ˠ": 476,
      "ˡ": 477,
      "ˢ": 478,
      "ˤ": 479,
      "˺": 480,
      "̀": 481,
      "́": 482,
      "̂": 483,
      "̃": 484,
      "̄": 485,
      "̅": 486,
      "̆": 487,
      "̇": 488,
      "̈": 489,
      "̉": 490,
      "̊": 491,
      "̋": 492,
      "̌": 493,
      "̍": 494,
      "̎": 495,
      "̏": 496,
      "̐": 497,
      "̑": 498,
      "̒": 499,
      "̓": 500,
      "̔": 501,
      "̕": 502,
      "̖": 503,
      "̗": 504,
      "̘": 505,
      "̙": 506,
      "̚": 507,
      "̛": 508,
      "̜": 509,
      "̝": 510,
      "̞": 511,
      "̟": 512,
      "̠": 513,
      "̡": 514,
      "̢": 515,
      "̣": 516,
      "̤": 517,
      "̥": 518,
      "̦": 519,
      "̧": 520,
      "̨": 521,
      "̩": 522,
      "̪": 523,
      "̫": 524,
      "̬": 525,
      "̭": 526,
      "̮": 527,
      "̯": 528,
      "̰": 529,
      "̱": 530,
      "̲": 531,
      "̳": 532,
      "̴": 533,
      "̵": 534,
      "̶": 535,
      "̷": 536,
      "̸": 537,
      "̹": 538,
      "̺": 539,
      "̻": 540,
      "̼": 541,
      "̽": 542,
      "̾": 543,
      "̿": 544,
      "͂": 545,
      "ͅ": 546,
      "͆": 547,
      "͇": 548,
      "͈": 549,
      "͉": 550,
      "͊": 551,
      "͋": 552,
      "͌": 553,
      "͍": 554,
      "͎": 555,
      "͏": 556,
      "͐": 557,
      "͑": 558,
      "͒": 559,
      "͓": 560,
      "͔": 561,
      "͕": 562,
      "͖": 563,
      "͗": 564,
      "͘": 565,
      "͙": 566,
      "͚": 567,
      "͛": 568,
      "͜": 569,
      "͝": 570,
      "͞": 571,
      "͟": 572,
      "͠": 573,
      "͡": 574,
      "͢": 575,
      "ͣ": 576,
      "ͤ": 577,
      "ͥ": 578,
      "ͦ": 579,
      "ͧ": 580,
      "ͨ": 581,
      "ͩ": 582,
      "ͪ": 583,
      "ͫ": 584,
      "ͬ": 585,
      "ͭ": 586,
      "ͮ": 587,
      "ͯ": 588,
      "Ͱ": 589,
      "Ͳ": 590,
      "΄": 591,
      "΅": 592,
      "Ά": 593,
      "Έ": 594,
      "Ή": 595,
      "Ί": 596,
      "Ό": 597,
      "Ύ": 598,
      "Ώ": 599,
      "ΐ": 600,
      "Α": 601,
      "Β": 602,
      "Γ": 603,
      "Δ": 604,
      "Ε": 605,
      "Ζ": 606,
      "Η": 607,
      "Θ": 608,
      "Ι": 609,
      "Κ": 610,
      "Λ": 611,
      "Μ": 612,
      "Ν": 613,
      "Ξ": 614,
      "Ο": 615,
      "Π": 616,
      "Ρ": 617,
      "Σ": 618,
      "Τ": 619,
      "Υ": 620,
      "Φ": 621,
      "Χ": 622,
      "Ψ": 623,
      "Ω": 624,
      "ά": 625,
      "έ": 626,
      "ή": 627,
      "ί": 628,
      "α": 629,
      "β": 630,
      "γ": 631,
      "δ": 632,
      "ε": 633,
      "ζ": 634,
      "η": 635,
      "θ": 636,
      "ι": 637,
      "κ": 638,
      "λ": 639,
      "μ": 640,
      "ν": 641,
      "ξ": 642,
      "ο": 643,
      "π": 644,
      "ρ": 645,
      "ς": 646,
      "σ": 647,
      "τ": 648,
      "υ": 649,
      "φ": 650,
      "χ": 651,
      "ψ": 652,
      "ω": 653,
      "ϊ": 654,
      "ό": 655,
      "ύ": 656,
      "ώ": 657,
      "Ϛ": 658,
      "Ϝ": 659,
      "Ϟ": 660,
      "ϟ": 661,
      "ϣ": 662,
      "Ϧ": 663,
      "ϩ": 664,
      "Ϸ": 665,
      "Ϻ": 666,
      "ϻ": 667,
      "Ͼ": 668,
      "Ё": 669,
      "Ђ": 670,
      "Ѓ": 671,
      "Є": 672,
      "Ѕ": 673,
      "І": 674,
      "Ї": 675,
      "Ј": 676,
      "Љ": 677,
      "Њ": 678,
      "Ћ": 679,
      "Ќ": 680,
      "Ў": 681,
      "Џ": 682,
      "А": 683,
      "Б": 684,
      "В": 685,
      "Г": 686,
      "Д": 687,
      "Е": 688,
      "Ж": 689,
      "З": 690,
      "И": 691,
      "Й": 692,
      "К": 693,
      "Л": 694,
      "М": 695,
      "Н": 696,
      "О": 697,
      "П": 698,
      "Р": 699,
      "С": 700,
      "Т": 701,
      "У": 702,
      "Ф": 703,
      "Х": 704,
      "Ц": 705,
      "Ч": 706,
      "Ш": 707,
      "Щ": 708,
      "Ъ": 709,
      "Ы": 710,
      "Ь": 711,
      "Э": 712,
      "Ю": 713,
      "Я": 714,
      "а": 715,
      "б": 716,
      "в": 717,
      "г": 718,
      "д": 719,
      "е": 720,
      "ж": 721,
      "з": 722,
      "и": 723,
      "й": 724,
      "к": 725,
      "л": 726,
      "м": 727,
      "н": 728,
      "о": 729,
      "п": 730,
      "р": 731,
      "с": 732,
      "т": 733,
      "у": 734,
      "ф": 735,
      "х": 736,
      "ц": 737,
      "ч": 738,
      "ш": 739,
      "щ": 740,
      "ъ": 741,
      "ы": 742,
      "ь": 743,
      "э": 744,
      "ю": 745,
      "я": 746,
      "ё": 747,
      "ђ": 748,
      "ѓ": 749,
      "є": 750,
      "ѕ": 751,
      "і": 752,
      "ї": 753,
      "ј": 754,
      "љ": 755,
      "њ": 756,
      "ћ": 757,
      "ќ": 758,
      "ѝ": 759,
      "ў": 760,
      "џ": 761,
      "ѣ": 762,
      "ѧ": 763,
      "ҁ": 764,
      "҅": 765,
      "҈": 766,
      "҉": 767,
      "Ґ": 768,
      "ґ": 769,
      "ғ": 770,
      "Қ": 771,
      "қ": 772,
      "ҝ": 773,
      "ҭ": 774,
      "ү": 775,
      "Ҳ": 776,
      "ҵ": 777,
      "Ҷ": 778,
      "ҽ": 779,
      "ҿ": 780,
      "ӂ": 781,
      "ӆ": 782,
      "ӈ": 783,
      "ә": 784,
      "Ӝ": 785,
      "Ӣ": 786,
      "ӧ": 787,
      "Ө": 788,
      "ө": 789,
      "Ӱ": 790,
      "Ա": 791,
      "Թ": 792,
      "Ճ": 793,
      "Շ": 794,
      "Ո": 795,
      "ա": 796,
      "գ": 797,
      "ե": 798,
      "թ": 799,
      "ի": 800,
      "խ": 801,
      "հ": 802,
      "մ": 803,
      "յ": 804,
      "ն": 805,
      "շ": 806,
      "ո": 807,
      "պ": 808,
      "տ": 809,
      "ր": 810,
      "ց": 811,
      "ւ": 812,
      "֑": 813,
      "ְ": 814,
      "ֱ": 815,
      "ֲ": 816,
      "ִ": 817,
      "ֵ": 818,
      "ֶ": 819,
      "ַ": 820,
      "ָ": 821,
      "ֹ": 822,
      "ֻ": 823,
      "ּ": 824,
      "׀": 825,
      "ׁ": 826,
      "ׂ": 827,
      "א": 828,
      "ב": 829,
      "ג": 830,
      "ד": 831,
      "ה": 832,
      "ו": 833,
      "ז": 834,
      "ח": 835,
      "ט": 836,
      "י": 837,
      "ך": 838,
      "כ": 839,
      "ל": 840,
      "ם": 841,
      "מ": 842,
      "ן": 843,
      "נ": 844,
      "ס": 845,
      "ע": 846,
      "ף": 847,
      "פ": 848,
      "ץ": 849,
      "צ": 850,
      "ק": 851,
      "ר": 852,
      "ש": 853,
      "ת": 854,
      "װ": 855,
      "ױ": 856,
      "ײ": 857,
      "׳": 858,
      "״": 859,
      "،": 860,
      "ؐ": 861,
      "ؑ": 862,
      "ؒ": 863,
      "ؓ": 864,
      "ؔ": 865,
      "؛": 866,
      "؟": 867,
      "ء": 868,
      "آ": 869,
      "أ": 870,
      "ؤ": 871,
      "إ": 872,
      "ئ": 873,
      "ا": 874,
      "ب": 875,
      "ة": 876,
      "ت": 877,
      "ث": 878,
      "ج": 879,
      "ح": 880,
      "خ": 881,
      "د": 882,
      "ذ": 883,
      "ر": 884,
      "ز": 885,
      "س": 886,
      "ش": 887,
      "ص": 888,
      "ض": 889,
      "ط": 890,
      "ظ": 891,
      "ع": 892,
      "غ": 893,
      "ـ": 894,
      "ف": 895,
      "ق": 896,
      "ك": 897,
      "ل": 898,
      "م": 899,
      "ن": 900,
      "ه": 901,
      "و": 902,
      "ى": 903,
      "ي": 904,
      "ً": 905,
      "ٌ": 906,
      "ٍ": 907,
      "َ": 908,
      "ُ": 909,
      "ِ": 910,
      "ّ": 911,
      "ْ": 912,
      "ٔ": 913,
      "٠": 914,
      "١": 915,
      "٢": 916,
      "٣": 917,
      "٤": 918,
      "٥": 919,
      "٦": 920,
      "٧": 921,
      "٨": 922,
      "٩": 923,
      "ٰ": 924,
      "ٹ": 925,
      "ټ": 926,
      "پ": 927,
      "څ": 928,
      "چ": 929,
      "ڈ": 930,
      "ډ": 931,
      "ڌ": 932,
      "ڑ": 933,
      "ړ": 934,
      "ڕ": 935,
      "ږ": 936,
      "ژ": 937,
      "ښ": 938,
      "ڜ": 939,
      "ڤ": 940,
      "ک": 941,
      "ګ": 942,
      "ڬ": 943,
      "گ": 944,
      "ڰ": 945,
      "ڵ": 946,
      "ں": 947,
      "ھ": 948,
      "ہ": 949,
      "ۃ": 950,
      "ۆ": 951,
      "ی": 952,
      "ۍ": 953,
      "ێ": 954,
      "ې": 955,
      "ے": 956,
      "ۓ": 957,
      "۔": 958,
      "ە": 959,
      "۝": 960,
      "۞": 961,
      "۩": 962,
      "۬": 963,
      "۰": 964,
      "۱": 965,
      "۲": 966,
      "۳": 967,
      "۴": 968,
      "۵": 969,
      "۶": 970,
      "۷": 971,
      "۸": 972,
      "۹": 973,
      "ۻ": 974,
      "۾": 975,
      "ܐ": 976,
      "ܕ": 977,
      "ܘ": 978,
      "ܚ": 979,
      "ܝ": 980,
      "ܠ": 981,
      "ܡ": 982,
      "ܣ": 983,
      "ܩ": 984,
      "ܪ": 985,
      "ܫ": 986,
      "ݓ": 987,
      "ݗ": 988,
      "ݜ": 989,
      "ݟ": 990,
      "ݡ": 991,
      "ݣ": 992,
      "ݭ": 993,
      "ހ": 994,
      "ނ": 995,
      "ރ": 996,
      "އ": 997,
      "ވ": 998,
      "މ": 999,
      "ފ": 1000,
      "ދ": 1001,
      "ތ": 1002,
      "ލ": 1003,
      "ގ": 1004,
      "ސ": 1005,
      "ޔ": 1006,
      "ޕ": 1007,
      "ޗ": 1008,
      "ަ": 1009,
      "ި": 1010,
      "ު": 1011,
      "ެ": 1012,
      "ޮ": 1013,
      "߷": 1014,
      "ऀ": 1015,
      "ँ": 1016,
      "ं": 1017,
      "ः": 1018,
      "अ": 1019,
      "आ": 1020,
      "इ": 1021,
      "ई": 1022,
      "उ": 1023,
      "ऊ": 1024,
      "ऋ": 1025,
      "ए": 1026,
      "ऐ": 1027,
      "ऑ": 1028,
      "ओ": 1029,
      "औ": 1030,
      "क": 1031,
      "ख": 1032,
      "ग": 1033,
      "घ": 1034,
      "ङ": 1035,
      "च": 1036,
      "छ": 1037,
      "ज": 1038,
      "झ": 1039,
      "ञ": 1040,
      "ट": 1041,
      "ठ": 1042,
      "ड": 1043,
      "ढ": 1044,
      "ण": 1045,
      "त": 1046,
      "थ": 1047,
      "द": 1048,
      "ध": 1049,
      "न": 1050,
      "प": 1051,
      "फ": 1052,
      "ब": 1053,
      "भ": 1054,
      "म": 1055,
      "य": 1056,
      "र": 1057,
      "ऱ": 1058,
      "ल": 1059,
      "ळ": 1060,
      "व": 1061,
      "श": 1062,
      "ष": 1063,
      "स": 1064,
      "ह": 1065,
      "़": 1066,
      "ा": 1067,
      "ि": 1068,
      "ी": 1069,
      "ु": 1070,
      "ू": 1071,
      "ृ": 1072,
      "ॅ": 1073,
      "ॆ": 1074,
      "े": 1075,
      "ै": 1076,
      "ॉ": 1077,
      "ो": 1078,
      "ौ": 1079,
      "्": 1080,
      "ॐ": 1081,
      "॑": 1082,
      "॒": 1083,
      "॓": 1084,
      "ज़": 1085,
      "।": 1086,
      "॥": 1087,
      "०": 1088,
      "१": 1089,
      "२": 1090,
      "३": 1091,
      "४": 1092,
      "५": 1093,
      "६": 1094,
      "७": 1095,
      "८": 1096,
      "९": 1097,
      "ঁ": 1098,
      "ং": 1099,
      "ঃ": 1100,
      "অ": 1101,
      "আ": 1102,
      "ই": 1103,
      "উ": 1104,
      "ঊ": 1105,
      "এ": 1106,
      "ঐ": 1107,
      "ও": 1108,
      "ক": 1109,
      "খ": 1110,
      "গ": 1111,
      "ঘ": 1112,
      "ঙ": 1113,
      "চ": 1114,
      "ছ": 1115,
      "জ": 1116,
      "ঝ": 1117,
      "ঞ": 1118,
      "ট": 1119,
      "ঠ": 1120,
      "ড": 1121,
      "ঢ": 1122,
      "ণ": 1123,
      "ত": 1124,
      "থ": 1125,
      "দ": 1126,
      "ধ": 1127,
      "ন": 1128,
      "প": 1129,
      "ফ": 1130,
      "ব": 1131,
      "ভ": 1132,
      "ম": 1133,
      "য": 1134,
      "র": 1135,
      "ল": 1136,
      "শ": 1137,
      "ষ": 1138,
      "স": 1139,
      "হ": 1140,
      "়": 1141,
      "া": 1142,
      "ি": 1143,
      "ী": 1144,
      "ু": 1145,
      "ূ": 1146,
      "ৃ": 1147,
      "ে": 1148,
      "ৈ": 1149,
      "ো": 1150,
      "ৌ": 1151,
      "্": 1152,
      "ৎ": 1153,
      "০": 1154,
      "১": 1155,
      "২": 1156,
      "৩": 1157,
      "৪": 1158,
      "৫": 1159,
      "৬": 1160,
      "৭": 1161,
      "৮": 1162,
      "৯": 1163,
      "৳": 1164,
      "ਂ": 1165,
      "ਃ": 1166,
      "ਅ": 1167,
      "ਆ": 1168,
      "ਇ": 1169,
      "ਈ": 1170,
      "ਉ": 1171,
      "ਊ": 1172,
      "ਏ": 1173,
      "ਐ": 1174,
      "ਓ": 1175,
      "ਔ": 1176,
      "ਕ": 1177,
      "ਖ": 1178,
      "ਗ": 1179,
      "ਘ": 1180,
      "ਚ": 1181,
      "ਛ": 1182,
      "ਜ": 1183,
      "ਝ": 1184,
      "ਟ": 1185,
      "ਠ": 1186,
      "ਡ": 1187,
      "ਢ": 1188,
      "ਣ": 1189,
      "ਤ": 1190,
      "ਥ": 1191,
      "ਦ": 1192,
      "ਧ": 1193,
      "ਨ": 1194,
      "ਪ": 1195,
      "ਫ": 1196,
      "ਬ": 1197,
      "ਭ": 1198,
      "ਮ": 1199,
      "ਯ": 1200,
      "ਰ": 1201,
      "ਲ": 1202,
      "ਵ": 1203,
      "ਸ": 1204,
      "ਹ": 1205,
      "਼": 1206,
      "ਾ": 1207,
      "ਿ": 1208,
      "ੀ": 1209,
      "ੁ": 1210,
      "ੂ": 1211,
      "ੇ": 1212,
      "ੈ": 1213,
      "ੋ": 1214,
      "ੌ": 1215,
      "੍": 1216,
      "ੜ": 1217,
      "੦": 1218,
      "੧": 1219,
      "੨": 1220,
      "੩": 1221,
      "੪": 1222,
      "੫": 1223,
      "੬": 1224,
      "੭": 1225,
      "੮": 1226,
      "੯": 1227,
      "ੰ": 1228,
      "ੱ": 1229,
      "ੲ": 1230,
      "ઁ": 1231,
      "ં": 1232,
      "અ": 1233,
      "આ": 1234,
      "ઇ": 1235,
      "ઈ": 1236,
      "ઉ": 1237,
      "એ": 1238,
      "ઓ": 1239,
      "ક": 1240,
      "ખ": 1241,
      "ગ": 1242,
      "ઘ": 1243,
      "ચ": 1244,
      "છ": 1245,
      "જ": 1246,
      "ઝ": 1247,
      "ઞ": 1248,
      "ટ": 1249,
      "ઠ": 1250,
      "ડ": 1251,
      "ણ": 1252,
      "ત": 1253,
      "થ": 1254,
      "દ": 1255,
      "ધ": 1256,
      "ન": 1257,
      "પ": 1258,
      "ફ": 1259,
      "બ": 1260,
      "ભ": 1261,
      "મ": 1262,
      "ય": 1263,
      "ર": 1264,
      "લ": 1265,
      "ળ": 1266,
      "વ": 1267,
      "શ": 1268,
      "ષ": 1269,
      "સ": 1270,
      "હ": 1271,
      "ા": 1272,
      "િ": 1273,
      "ી": 1274,
      "ુ": 1275,
      "ૂ": 1276,
      "ૃ": 1277,
      "ે": 1278,
      "ૈ": 1279,
      "ૉ": 1280,
      "ો": 1281,
      "ૌ": 1282,
      "્": 1283,
      "ଁ": 1284,
      "ଂ": 1285,
      "ଅ": 1286,
      "ଆ": 1287,
      "ଇ": 1288,
      "ଉ": 1289,
      "ଏ": 1290,
      "ଓ": 1291,
      "କ": 1292,
      "ଖ": 1293,
      "ଗ": 1294,
      "ଚ": 1295,
      "ଜ": 1296,
      "ଟ": 1297,
      "ଠ": 1298,
      "ଡ": 1299,
      "ଣ": 1300,
      "ତ": 1301,
      "ଥ": 1302,
      "ଦ": 1303,
      "ଧ": 1304,
      "ନ": 1305,
      "ପ": 1306,
      "ଫ": 1307,
      "ବ": 1308,
      "ଭ": 1309,
      "ମ": 1310,
      "ଯ": 1311,
      "ର": 1312,
      "ଲ": 1313,
      "ଳ": 1314,
      "ଶ": 1315,
      "ଷ": 1316,
      "ସ": 1317,
      "ହ": 1318,
      "ା": 1319,
      "ି": 1320,
      "ୀ": 1321,
      "ୁ": 1322,
      "ୂ": 1323,
      "େ": 1324,
      "ୈ": 1325,
      "ୋ": 1326,
      "୍": 1327,
      "ୟ": 1328,
      "୤": 1329,
      "୦": 1330,
      "୧": 1331,
      "୨": 1332,
      "୩": 1333,
      "୪": 1334,
      "୭": 1335,
      "୯": 1336,
      "ୱ": 1337,
      "ஃ": 1338,
      "அ": 1339,
      "ஆ": 1340,
      "இ": 1341,
      "ஈ": 1342,
      "உ": 1343,
      "ஊ": 1344,
      "எ": 1345,
      "ஏ": 1346,
      "ஐ": 1347,
      "ஒ": 1348,
      "ஓ": 1349,
      "க": 1350,
      "ங": 1351,
      "ச": 1352,
      "ஜ": 1353,
      "ஞ": 1354,
      "ட": 1355,
      "ண": 1356,
      "த": 1357,
      "ந": 1358,
      "ன": 1359,
      "ப": 1360,
      "ம": 1361,
      "ய": 1362,
      "ர": 1363,
      "ற": 1364,
      "ல": 1365,
      "ள": 1366,
      "ழ": 1367,
      "வ": 1368,
      "ஷ": 1369,
      "ஸ": 1370,
      "ஹ": 1371,
      "ா": 1372,
      "ி": 1373,
      "ீ": 1374,
      "ு": 1375,
      "ூ": 1376,
      "ெ": 1377,
      "ே": 1378,
      "ை": 1379,
      "ொ": 1380,
      "ோ": 1381,
      "ௌ": 1382,
      "்": 1383,
      "௹": 1384,
      "ం": 1385,
      "అ": 1386,
      "ఆ": 1387,
      "ఇ": 1388,
      "ఈ": 1389,
      "ఉ": 1390,
      "ఎ": 1391,
      "ఒ": 1392,
      "ఓ": 1393,
      "క": 1394,
      "గ": 1395,
      "చ": 1396,
      "ఛ": 1397,
      "జ": 1398,
      "ట": 1399,
      "ఠ": 1400,
      "డ": 1401,
      "ణ": 1402,
      "త": 1403,
      "థ": 1404,
      "ద": 1405,
      "ధ": 1406,
      "న": 1407,
      "ప": 1408,
      "ఫ": 1409,
      "బ": 1410,
      "భ": 1411,
      "మ": 1412,
      "య": 1413,
      "ర": 1414,
      "ల": 1415,
      "ళ": 1416,
      "వ": 1417,
      "శ": 1418,
      "ష": 1419,
      "స": 1420,
      "హ": 1421,
      "ా": 1422,
      "ి": 1423,
      "ీ": 1424,
      "ు": 1425,
      "ూ": 1426,
      "ె": 1427,
      "ే": 1428,
      "ై": 1429,
      "ొ": 1430,
      "ో": 1431,
      "ౌ": 1432,
      "్": 1433,
      "ಂ": 1434,
      "ಅ": 1435,
      "ಆ": 1436,
      "ಇ": 1437,
      "ಈ": 1438,
      "ಉ": 1439,
      "ಊ": 1440,
      "ಎ": 1441,
      "ಏ": 1442,
      "ಒ": 1443,
      "ಓ": 1444,
      "ಕ": 1445,
      "ಖ": 1446,
      "ಗ": 1447,
      "ಘ": 1448,
      "ಚ": 1449,
      "ಜ": 1450,
      "ಞ": 1451,
      "ಟ": 1452,
      "ಠ": 1453,
      "ಡ": 1454,
      "ಢ": 1455,
      "ಣ": 1456,
      "ತ": 1457,
      "ಥ": 1458,
      "ದ": 1459,
      "ಧ": 1460,
      "ನ": 1461,
      "ಪ": 1462,
      "ಬ": 1463,
      "ಭ": 1464,
      "ಮ": 1465,
      "ಯ": 1466,
      "ರ": 1467,
      "ಲ": 1468,
      "ಳ": 1469,
      "ವ": 1470,
      "ಶ": 1471,
      "ಷ": 1472,
      "ಸ": 1473,
      "ಹ": 1474,
      "ಾ": 1475,
      "ಿ": 1476,
      "ೀ": 1477,
      "ು": 1478,
      "ೂ": 1479,
      "ೃ": 1480,
      "ೆ": 1481,
      "ೇ": 1482,
      "ೈ": 1483,
      "ೊ": 1484,
      "ೋ": 1485,
      "ೌ": 1486,
      "್": 1487,
      "೦": 1488,
      "೧": 1489,
      "೨": 1490,
      "೩": 1491,
      "೪": 1492,
      "೫": 1493,
      "೭": 1494,
      "೮": 1495,
      "೯": 1496,
      "ം": 1497,
      "അ": 1498,
      "ആ": 1499,
      "ഇ": 1500,
      "ഈ": 1501,
      "ഉ": 1502,
      "എ": 1503,
      "ഏ": 1504,
      "ഐ": 1505,
      "ഒ": 1506,
      "ഓ": 1507,
      "ക": 1508,
      "ഖ": 1509,
      "ഗ": 1510,
      "ങ": 1511,
      "ച": 1512,
      "ഛ": 1513,
      "ജ": 1514,
      "ഞ": 1515,
      "ട": 1516,
      "ഠ": 1517,
      "ഡ": 1518,
      "ഢ": 1519,
      "ണ": 1520,
      "ത": 1521,
      "ഥ": 1522,
      "ദ": 1523,
      "ധ": 1524,
      "ന": 1525,
      "പ": 1526,
      "ഫ": 1527,
      "ബ": 1528,
      "ഭ": 1529,
      "മ": 1530,
      "യ": 1531,
      "ര": 1532,
      "റ": 1533,
      "ല": 1534,
      "ള": 1535,
      "ഴ": 1536,
      "വ": 1537,
      "ശ": 1538,
      "ഷ": 1539,
      "സ": 1540,
      "ഹ": 1541,
      "ാ": 1542,
      "ി": 1543,
      "ീ": 1544,
      "ു": 1545,
      "ൂ": 1546,
      "ൃ": 1547,
      "െ": 1548,
      "േ": 1549,
      "ൈ": 1550,
      "ൊ": 1551,
      "ോ": 1552,
      "ൌ": 1553,
      "്": 1554,
      "ൻ": 1555,
      "ർ": 1556,
      "ൽ": 1557,
      "ං": 1558,
      "අ": 1559,
      "ඉ": 1560,
      "ඊ": 1561,
      "උ": 1562,
      "ඒ": 1563,
      "ඔ": 1564,
      "ක": 1565,
      "ග": 1566,
      "ච": 1567,
      "ඡ": 1568,
      "ජ": 1569,
      "ට": 1570,
      "ඩ": 1571,
      "ණ": 1572,
      "ත": 1573,
      "ථ": 1574,
      "ද": 1575,
      "ධ": 1576,
      "න": 1577,
      "ඳ": 1578,
      "ප": 1579,
      "ඵ": 1580,
      "බ": 1581,
      "භ": 1582,
      "ම": 1583,
      "ඹ": 1584,
      "ය": 1585,
      "ර": 1586,
      "ල": 1587,
      "ව": 1588,
      "ශ": 1589,
      "ෂ": 1590,
      "ස": 1591,
      "හ": 1592,
      "ළ": 1593,
      "්": 1594,
      "ා": 1595,
      "ැ": 1596,
      "ෑ": 1597,
      "ි": 1598,
      "ී": 1599,
      "ු": 1600,
      "ූ": 1601,
      "ෘ": 1602,
      "ෙ": 1603,
      "ේ": 1604,
      "ො": 1605,
      "ෝ": 1606,
      "ก": 1607,
      "ข": 1608,
      "ฃ": 1609,
      "ค": 1610,
      "ฆ": 1611,
      "ง": 1612,
      "จ": 1613,
      "ช": 1614,
      "ซ": 1615,
      "ญ": 1616,
      "ฎ": 1617,
      "ฏ": 1618,
      "ฐ": 1619,
      "ฑ": 1620,
      "ฒ": 1621,
      "ณ": 1622,
      "ด": 1623,
      "ต": 1624,
      "ถ": 1625,
      "ท": 1626,
      "ธ": 1627,
      "น": 1628,
      "บ": 1629,
      "ป": 1630,
      "ผ": 1631,
      "ฝ": 1632,
      "พ": 1633,
      "ฟ": 1634,
      "ภ": 1635,
      "ม": 1636,
      "ย": 1637,
      "ร": 1638,
      "ฤ": 1639,
      "ล": 1640,
      "ว": 1641,
      "ศ": 1642,
      "ษ": 1643,
      "ส": 1644,
      "ห": 1645,
      "ฬ": 1646,
      "อ": 1647,
      "ฮ": 1648,
      "ะ": 1649,
      "ั": 1650,
      "า": 1651,
      "ำ": 1652,
      "ิ": 1653,
      "ี": 1654,
      "ึ": 1655,
      "ื": 1656,
      "ุ": 1657,
      "ู": 1658,
      "ฺ": 1659,
      "฿": 1660,
      "เ": 1661,
      "แ": 1662,
      "โ": 1663,
      "ใ": 1664,
      "ไ": 1665,
      "ๆ": 1666,
      "็": 1667,
      "่": 1668,
      "้": 1669,
      "๊": 1670,
      "๋": 1671,
      "์": 1672,
      "๑": 1673,
      "๒": 1674,
      "๓": 1675,
      "๔": 1676,
      "๛": 1677,
      "ກ": 1678,
      "ຄ": 1679,
      "ງ": 1680,
      "ຈ": 1681,
      "ຊ": 1682,
      "ດ": 1683,
      "ຕ": 1684,
      "ທ": 1685,
      "ນ": 1686,
      "ປ": 1687,
      "ພ": 1688,
      "ມ": 1689,
      "ຣ": 1690,
      "ລ": 1691,
      "ວ": 1692,
      "ສ": 1693,
      "ຫ": 1694,
      "ອ": 1695,
      "ຮ": 1696,
      "ະ": 1697,
      "ັ": 1698,
      "າ": 1699,
      "ິ": 1700,
      "ີ": 1701,
      "ຸ": 1702,
      "ູ": 1703,
      "ົ": 1704,
      "ຼ": 1705,
      "ແ": 1706,
      "ໂ": 1707,
      "ໄ": 1708,
      "່": 1709,
      "ໜ": 1710,
      "ༀ": 1711,
      "༆": 1712,
      "་": 1713,
      "།": 1714,
      "༡": 1715,
      "༧": 1716,
      "༨": 1717,
      "༺": 1718,
      "༻": 1719,
      "༼": 1720,
      "༽": 1721,
      "ཀ": 1722,
      "ཁ": 1723,
      "ག": 1724,
      "ང": 1725,
      "ཅ": 1726,
      "ཆ": 1727,
      "ཇ": 1728,
      "ཉ": 1729,
      "ད": 1730,
      "ན": 1731,
      "པ": 1732,
      "བ": 1733,
      "མ": 1734,
      "ཚ": 1735,
      "ཛ": 1736,
      "ཝ": 1737,
      "ཞ": 1738,
      "ཟ": 1739,
      "འ": 1740,
      "ཡ": 1741,
      "ར": 1742,
      "ལ": 1743,
      "ཤ": 1744,
      "ས": 1745,
      "ཧ": 1746,
      "ཨ": 1747,
      "ཱ": 1748,
      "ི": 1749,
      "ུ": 1750,
      "ེ": 1751,
      "ོ": 1752,
      "ཿ": 1753,
      "ྃ": 1754,
      "ྐ": 1755,
      "ྒ": 1756,
      "ྣ": 1757,
      "ྤ": 1758,
      "ྱ": 1759,
      "ྲ": 1760,
      "ླ": 1761,
      "࿂": 1762,
      "࿓": 1763,
      "က": 1764,
      "ခ": 1765,
      "ဂ": 1766,
      "ဃ": 1767,
      "င": 1768,
      "စ": 1769,
      "ဆ": 1770,
      "ဇ": 1771,
      "ည": 1772,
      "ဋ": 1773,
      "ဌ": 1774,
      "ဏ": 1775,
      "တ": 1776,
      "ထ": 1777,
      "ဒ": 1778,
      "န": 1779,
      "ပ": 1780,
      "ဖ": 1781,
      "ဗ": 1782,
      "ဘ": 1783,
      "မ": 1784,
      "ယ": 1785,
      "ရ": 1786,
      "လ": 1787,
      "ဝ": 1788,
      "သ": 1789,
      "ဟ": 1790,
      "အ": 1791,
      "ဥ": 1792,
      "ဦ": 1793,
      "ါ": 1794,
      "ာ": 1795,
      "ိ": 1796,
      "ီ": 1797,
      "ု": 1798,
      "ူ": 1799,
      "ေ": 1800,
      "ဲ": 1801,
      "ဳ": 1802,
      "ဴ": 1803,
      "ံ": 1804,
      "့": 1805,
      "း": 1806,
      "္": 1807,
      "်": 1808,
      "ျ": 1809,
      "ြ": 1810,
      "ွ": 1811,
      "၀": 1812,
      "၁": 1813,
      "၂": 1814,
      "၃": 1815,
      "၄": 1816,
      "၆": 1817,
      "၉": 1818,
      "၊": 1819,
      "။": 1820,
      "၍": 1821,
      "၏": 1822,
      "ၚ": 1823,
      "ၠ": 1824,
      "ၢ": 1825,
      "ၤ": 1826,
      "ၵ": 1827,
      "ၻ": 1828,
      "ၼ": 1829,
      "ၾ": 1830,
      "ၿ": 1831,
      "ႀ": 1832,
      "ႈ": 1833,
      "ႊ": 1834,
      "ႏ": 1835,
      "႒": 1836,
      "႔": 1837,
      "႕": 1838,
      "ა": 1839,
      "ბ": 1840,
      "გ": 1841,
      "დ": 1842,
      "ე": 1843,
      "ვ": 1844,
      "ზ": 1845,
      "თ": 1846,
      "ი": 1847,
      "კ": 1848,
      "ლ": 1849,
      "მ": 1850,
      "ნ": 1851,
      "ო": 1852,
      "პ": 1853,
      "ჟ": 1854,
      "რ": 1855,
      "ს": 1856,
      "ტ": 1857,
      "უ": 1858,
      "ფ": 1859,
      "ქ": 1860,
      "ღ": 1861,
      "ყ": 1862,
      "შ": 1863,
      "ჩ": 1864,
      "ც": 1865,
      "ძ": 1866,
      "წ": 1867,
      "ჭ": 1868,
      "ხ": 1869,
      "ჯ": 1870,
      "ჰ": 1871,
      "ჷ": 1872,
      "ሀ": 1873,
      "ሁ": 1874,
      "ሂ": 1875,
      "ሃ": 1876,
      "ሄ": 1877,
      "ህ": 1878,
      "ለ": 1879,
      "ሉ": 1880,
      "ሊ": 1881,
      "ላ": 1882,
      "ል": 1883,
      "ሎ": 1884,
      "ሐ": 1885,
      "ሑ": 1886,
      "ሒ": 1887,
      "ሓ": 1888,
      "ሕ": 1889,
      "ሖ": 1890,
      "መ": 1891,
      "ሙ": 1892,
      "ሚ": 1893,
      "ማ": 1894,
      "ሜ": 1895,
      "ም": 1896,
      "ሞ": 1897,
      "ረ": 1898,
      "ሩ": 1899,
      "ሪ": 1900,
      "ራ": 1901,
      "ሬ": 1902,
      "ር": 1903,
      "ሮ": 1904,
      "ሰ": 1905,
      "ሱ": 1906,
      "ሲ": 1907,
      "ሳ": 1908,
      "ሴ": 1909,
      "ስ": 1910,
      "ሸ": 1911,
      "ሻ": 1912,
      "ሽ": 1913,
      "ሾ": 1914,
      "ቀ": 1915,
      "ቁ": 1916,
      "ቂ": 1917,
      "ቃ": 1918,
      "ቅ": 1919,
      "ቆ": 1920,
      "ቐ": 1921,
      "ቑ": 1922,
      "ቒ": 1923,
      "ቓ": 1924,
      "ቕ": 1925,
      "በ": 1926,
      "ቡ": 1927,
      "ቢ": 1928,
      "ባ": 1929,
      "ቤ": 1930,
      "ብ": 1931,
      "ቦ": 1932,
      "ቨ": 1933,
      "ተ": 1934,
      "ቱ": 1935,
      "ቲ": 1936,
      "ታ": 1937,
      "ቴ": 1938,
      "ት": 1939,
      "ቶ": 1940,
      "ቼ": 1941,
      "ች": 1942,
      "ነ": 1943,
      "ኑ": 1944,
      "ኒ": 1945,
      "ና": 1946,
      "ን": 1947,
      "ኝ": 1948,
      "አ": 1949,
      "ኡ": 1950,
      "ኢ": 1951,
      "ኣ": 1952,
      "ኤ": 1953,
      "እ": 1954,
      "ኦ": 1955,
      "ከ": 1956,
      "ኩ": 1957,
      "ኪ": 1958,
      "ካ": 1959,
      "ክ": 1960,
      "ኮ": 1961,
      "ኳ": 1962,
      "ኸ": 1963,
      "ኹ": 1964,
      "ኺ": 1965,
      "ኻ": 1966,
      "ኽ": 1967,
      "ኾ": 1968,
      "ዃ": 1969,
      "ወ": 1970,
      "ዊ": 1971,
      "ዋ": 1972,
      "ው": 1973,
      "ዎ": 1974,
      "ዐ": 1975,
      "ዑ": 1976,
      "ዒ": 1977,
      "ዓ": 1978,
      "ዕ": 1979,
      "ዘ": 1980,
      "ዚ": 1981,
      "ዛ": 1982,
      "ዜ": 1983,
      "ዝ": 1984,
      "የ": 1985,
      "ዩ": 1986,
      "ያ": 1987,
      "ይ": 1988,
      "ዮ": 1989,
      "ደ": 1990,
      "ዱ": 1991,
      "ዲ": 1992,
      "ዳ": 1993,
      "ድ": 1994,
      "ዶ": 1995,
      "ጀ": 1996,
      "ጅ": 1997,
      "ገ": 1998,
      "ጊ": 1999,
      "ጋ": 2000,
      "ግ": 2001,
      "ጎ": 2002,
      "ጓ": 2003,
      "ጠ": 2004,
      "ጢ": 2005,
      "ጣ": 2006,
      "ጥ": 2007,
      "ጦ": 2008,
      "ጨ": 2009,
      "ፀ": 2010,
      "ፁ": 2011,
      "ፂ": 2012,
      "ፃ": 2013,
      "ፅ": 2014,
      "ፆ": 2015,
      "ፈ": 2016,
      "ፉ": 2017,
      "ፊ": 2018,
      "ፋ": 2019,
      "ፍ": 2020,
      "ፎ": 2021,
      "ፔ": 2022,
      "ፖ": 2023,
      "፡": 2024,
      "።": 2025,
      "፣": 2026,
      "ᚹ": 2027,
      "ᛇ": 2028,
      "ᛏ": 2029,
      "ᛟ": 2030,
      "᛭": 2031,
      "ក": 2032,
      "ខ": 2033,
      "គ": 2034,
      "ង": 2035,
      "ច": 2036,
      "ជ": 2037,
      "ដ": 2038,
      "ណ": 2039,
      "ត": 2040,
      "ថ": 2041,
      "ន": 2042,
      "ប": 2043,
      "ព": 2044,
      "ភ": 2045,
      "ម": 2046,
      "យ": 2047,
      "រ": 2048,
      "ល": 2049,
      "វ": 2050,
      "ស": 2051,
      "ហ": 2052,
      "ឬ": 2053,
      "ា": 2054,
      "ិ": 2055,
      "ី": 2056,
      "ឹ": 2057,
      "ុ": 2058,
      "ូ": 2059,
      "ួ": 2060,
      "ើ": 2061,
      "ឿ": 2062,
      "េ": 2063,
      "ែ": 2064,
      "់": 2065,
      "៍": 2066,
      "្": 2067,
      "៕": 2068,
      "ៗ": 2069,
      "៙": 2070,
      "៛": 2071,
      "ᠠ": 2072,
      "ᠣ": 2073,
      "ᠨ": 2074,
      "ᠩ": 2075,
      "ᠪ": 2076,
      "ᠮ": 2077,
      "ᠯ": 2078,
      "ᠰ": 2079,
      "ᠴ": 2080,
      "ᠵ": 2081,
      "ᠸ": 2082,
      "ᡝ": 2083,
      "ᡠ": 2084,
      "ᡤ": 2085,
      "ᡥ": 2086,
      "ᡨ": 2087,
      "ᡳ": 2088,
      "ᡴ": 2089,
      "ᡵ": 2090,
      "᧾": 2091,
      "ᴀ": 2092,
      "ᴥ": 2093,
      "ᴬ": 2094,
      "ᴷ": 2095,
      "ᴸ": 2096,
      "ᵀ": 2097,
      "ᵃ": 2098,
      "ᵏ": 2099,
      "ᵗ": 2100,
      "ᵮ": 2101,
      "ᶏ": 2102,
      "Ḁ": 2103,
      "ḁ": 2104,
      "ḃ": 2105,
      "Ḋ": 2106,
      "Ḍ": 2107,
      "ḍ": 2108,
      "Ḏ": 2109,
      "ḏ": 2110,
      "Ḑ": 2111,
      "ḑ": 2112,
      "Ḓ": 2113,
      "ḕ": 2114,
      "ḙ": 2115,
      "Ḛ": 2116,
      "Ḟ": 2117,
      "ḟ": 2118,
      "Ḡ": 2119,
      "ḡ": 2120,
      "Ḣ": 2121,
      "Ḥ": 2122,
      "ḥ": 2123,
      "Ḧ": 2124,
      "ḩ": 2125,
      "Ḭ": 2126,
      "ḭ": 2127,
      "Ḯ": 2128,
      "ḱ": 2129,
      "ḵ": 2130,
      "Ḷ": 2131,
      "ḷ": 2132,
      "Ḹ": 2133,
      "ḹ": 2134,
      "ḻ": 2135,
      "Ḿ": 2136,
      "ḿ": 2137,
      "ṁ": 2138,
      "Ṃ": 2139,
      "ṃ": 2140,
      "ṅ": 2141,
      "Ṇ": 2142,
      "ṇ": 2143,
      "ṋ": 2144,
      "Ṍ": 2145,
      "ṍ": 2146,
      "Ṏ": 2147,
      "ṏ": 2148,
      "ṑ": 2149,
      "Ṕ": 2150,
      "ṗ": 2151,
      "Ṙ": 2152,
      "ṙ": 2153,
      "Ṛ": 2154,
      "ṛ": 2155,
      "Ṝ": 2156,
      "ṝ": 2157,
      "Ṟ": 2158,
      "Ṣ": 2159,
      "ṣ": 2160,
      "Ṥ": 2161,
      "ṧ": 2162,
      "ṩ": 2163,
      "Ṫ": 2164,
      "ṫ": 2165,
      "Ṭ": 2166,
      "ṭ": 2167,
      "Ṯ": 2168,
      "ṯ": 2169,
      "Ṱ": 2170,
      "ṽ": 2171,
      "Ẃ": 2172,
      "Ẅ": 2173,
      "ẅ": 2174,
      "Ẇ": 2175,
      "Ẉ": 2176,
      "Ẋ": 2177,
      "Ẍ": 2178,
      "ẓ": 2179,
      "ẖ": 2180,
      "ẙ": 2181,
      "ẚ": 2182,
      "Ạ": 2183,
      "ạ": 2184,
      "Ả": 2185,
      "ả": 2186,
      "Ấ": 2187,
      "ấ": 2188,
      "ầ": 2189,
      "ẩ": 2190,
      "ẫ": 2191,
      "Ậ": 2192,
      "ậ": 2193,
      "ắ": 2194,
      "ằ": 2195,
      "ẳ": 2196,
      "ẵ": 2197,
      "ặ": 2198,
      "Ẹ": 2199,
      "ẹ": 2200,
      "Ẻ": 2201,
      "ẻ": 2202,
      "Ẽ": 2203,
      "ẽ": 2204,
      "Ế": 2205,
      "ế": 2206,
      "ề": 2207,
      "ể": 2208,
      "ễ": 2209,
      "ệ": 2210,
      "Ỉ": 2211,
      "ỉ": 2212,
      "Ị": 2213,
      "ị": 2214,
      "ọ": 2215,
      "Ỏ": 2216,
      "ỏ": 2217,
      "Ố": 2218,
      "ố": 2219,
      "ồ": 2220,
      "ổ": 2221,
      "Ỗ": 2222,
      "ỗ": 2223,
      "ộ": 2224,
      "Ớ": 2225,
      "ớ": 2226,
      "ờ": 2227,
      "Ở": 2228,
      "ở": 2229,
      "ỡ": 2230,
      "ợ": 2231,
      "ụ": 2232,
      "ủ": 2233,
      "ứ": 2234,
      "ừ": 2235,
      "ử": 2236,
      "ữ": 2237,
      "ự": 2238,
      "ỳ": 2239,
      "Ỹ": 2240,
      "ỹ": 2241,
      "Ỽ": 2242,
      "ỽ": 2243,
      "Ỿ": 2244,
      "ἀ": 2245,
      "ἁ": 2246,
      "ἂ": 2247,
      "ἄ": 2248,
      "Ἀ": 2249,
      "ἐ": 2250,
      "ἑ": 2251,
      "ἒ": 2252,
      "ἔ": 2253,
      "Ἐ": 2254,
      "Ἒ": 2255,
      "ἠ": 2256,
      "ἡ": 2257,
      "ἢ": 2258,
      "ἤ": 2259,
      "ἧ": 2260,
      "ἰ": 2261,
      "ἱ": 2262,
      "ἴ": 2263,
      "ἵ": 2264,
      "ἶ": 2265,
      "ἷ": 2266,
      "Ἴ": 2267,
      "ὀ": 2268,
      "ὁ": 2269,
      "ὂ": 2270,
      "ὃ": 2271,
      "ὄ": 2272,
      "ὅ": 2273,
      "Ὀ": 2274,
      "Ὁ": 2275,
      "Ὅ": 2276,
      "ὐ": 2277,
      "ὑ": 2278,
      "ὗ": 2279,
      "ὧ": 2280,
      "ὰ": 2281,
      "ὲ": 2282,
      "ὴ": 2283,
      "ὶ": 2284,
      "ὸ": 2285,
      "ὺ": 2286,
      "ὼ": 2287,
      "ᾚ": 2288,
      "ᾞ": 2289,
      "ᾧ": 2290,
      "ᾳ": 2291,
      "ᾶ": 2292,
      "᾽": 2293,
      "ῃ": 2294,
      "ῄ": 2295,
      "ῆ": 2296,
      "ῇ": 2297,
      "Ὲ": 2298,
      "ῖ": 2299,
      "ῦ": 2300,
      "ῳ": 2301,
      "ῶ": 2302,
      "ῷ": 2303,
      "ῼ": 2304,
      "​": 2305,
      "‌": 2306,
      "‍": 2307,
      "‎": 2308,
      "‏": 2309,
      "‐": 2310,
      "‑": 2311,
      "‒": 2312,
      "–": 2313,
      "—": 2314,
      "―": 2315,
      "‖": 2316,
      "‘": 2317,
      "’": 2318,
      "‚": 2319,
      "“": 2320,
      "”": 2321,
      "„": 2322,
      "†": 2323,
      "‡": 2324,
      "•": 2325,
      "‣": 2326,
      "…": 2327,
      "‧": 2328,
      "‪": 2329,
      "‫": 2330,
      "‬": 2331,
      "‮": 2332,
      "‰": 2333,
      "′": 2334,
      "″": 2335,
      "‹": 2336,
      "›": 2337,
      "‼": 2338,
      "‽": 2339,
      "‿": 2340,
      "⁂": 2341,
      "⁄": 2342,
      "⁓": 2343,
      "⁘": 2344,
      "⁞": 2345,
      "⁠": 2346,
      "⁰": 2347,
      "⁴": 2348,
      "⁵": 2349,
      "⁷": 2350,
      "⁸": 2351,
      "⁽": 2352,
      "⁾": 2353,
      "ⁿ": 2354,
      "₂": 2355,
      "₠": 2356,
      "₡": 2357,
      "₢": 2358,
      "₣": 2359,
      "₤": 2360,
      "₥": 2361,
      "₦": 2362,
      "₧": 2363,
      "₨": 2364,
      "₩": 2365,
      "₪": 2366,
      "₫": 2367,
      "€": 2368,
      "₭": 2369,
      "₮": 2370,
      "₯": 2371,
      "₰": 2372,
      "₳": 2373,
      "₴": 2374,
      "₵": 2375,
      "℃": 2376,
      "℅": 2377,
      "ℍ": 2378,
      "ℓ": 2379,
      "№": 2380,
      "ℚ": 2381,
      "ℝ": 2382,
      "℠": 2383,
      "™": 2384,
      "ℤ": 2385,
      "℥": 2386,
      "ℱ": 2387,
      "Ⅎ": 2388,
      "ℳ": 2389,
      "⅓": 2390,
      "⅔": 2391,
      "⅛": 2392,
      "⅜": 2393,
      "⅝": 2394,
      "⅞": 2395,
      "Ⅱ": 2396,
      "ⅱ": 2397,
      "ↄ": 2398,
      "←": 2399,
      "↑": 2400,
      "→": 2401,
      "↓": 2402,
      "↔": 2403,
      "↕": 2404,
      "↗": 2405,
      "↘": 2406,
      "↙": 2407,
      "↨": 2408,
      "⇄": 2409,
      "⇌": 2410,
      "⇐": 2411,
      "⇒": 2412,
      "⇔": 2413,
      "⇚": 2414,
      "⇛": 2415,
      "⇝": 2416,
      "∀": 2417,
      "∂": 2418,
      "∃": 2419,
      "∅": 2420,
      "∆": 2421,
      "∇": 2422,
      "∈": 2423,
      "∋": 2424,
      "∏": 2425,
      "∐": 2426,
      "∑": 2427,
      "−": 2428,
      "∓": 2429,
      "∗": 2430,
      "∘": 2431,
      "∙": 2432,
      "√": 2433,
      "∝": 2434,
      "∞": 2435,
      "∧": 2436,
      "∩": 2437,
      "∪": 2438,
      "∫": 2439,
      "∬": 2440,
      "∭": 2441,
      "∮": 2442,
      "∴": 2443,
      "∼": 2444,
      "≁": 2445,
      "≈": 2446,
      "≠": 2447,
      "≡": 2448,
      "≤": 2449,
      "≥": 2450,
      "≼": 2451,
      "≽": 2452,
      "⊂": 2453,
      "⊃": 2454,
      "⊈": 2455,
      "⊊": 2456,
      "⊕": 2457,
      "⊗": 2458,
      "⊙": 2459,
      "⊝": 2460,
      "⊥": 2461,
      "⋅": 2462,
      "⋙": 2463,
      "⋠": 2464,
      "⋡": 2465,
      "⌊": 2466,
      "〈": 2467,
      "⍦": 2468,
      "①": 2469,
      "②": 2470,
      "③": 2471,
      "④": 2472,
      "⑤": 2473,
      "⑨": 2474,
      "Ⓐ": 2475,
      "Ⓗ": 2476,
      "Ⓜ": 2477,
      "Ⓝ": 2478,
      "Ⓞ": 2479,
      "Ⓢ": 2480,
      "Ⓣ": 2481,
      "Ⓥ": 2482,
      "Ⓨ": 2483,
      "⓶": 2484,
      "─": 2485,
      "━": 2486,
      "│": 2487,
      "┃": 2488,
      "┄": 2489,
      "┌": 2490,
      "┏": 2491,
      "┐": 2492,
      "┓": 2493,
      "└": 2494,
      "┗": 2495,
      "┘": 2496,
      "┛": 2497,
      "├": 2498,
      "┬": 2499,
      "═": 2500,
      "║": 2501,
      "╔": 2502,
      "╗": 2503,
      "╚": 2504,
      "╝": 2505,
      "╞": 2506,
      "╟": 2507,
      "╠": 2508,
      "╡": 2509,
      "╢": 2510,
      "╣": 2511,
      "╤": 2512,
      "╦": 2513,
      "╩": 2514,
      "╫": 2515,
      "╬": 2516,
      "╭": 2517,
      "╮": 2518,
      "▀": 2519,
      "▂": 2520,
      "▃": 2521,
      "▄": 2522,
      "▅": 2523,
      "█": 2524,
      "▌": 2525,
      "▎": 2526,
      "▐": 2527,
      "░": 2528,
      "■": 2529,
      "□": 2530,
      "▪": 2531,
      "▫": 2532,
      "▲": 2533,
      "△": 2534,
      "▶": 2535,
      "►": 2536,
      "▼": 2537,
      "▾": 2538,
      "◀": 2539,
      "◁": 2540,
      "◄": 2541,
      "◅": 2542,
      "◊": 2543,
      "○": 2544,
      "◌": 2545,
      "●": 2546,
      "◔": 2547,
      "◕": 2548,
      "◘": 2549,
      "◙": 2550,
      "◤": 2551,
      "◥": 2552,
      "◦": 2553,
      "◯": 2554,
      "◾": 2555,
      "☀": 2556,
      "☁": 2557,
      "☂": 2558,
      "☃": 2559,
      "☄": 2560,
      "★": 2561,
      "☆": 2562,
      "☇": 2563,
      "☎": 2564,
      "☏": 2565,
      "☑": 2566,
      "☒": 2567,
      "☓": 2568,
      "☘": 2569,
      "☛": 2570,
      "☜": 2571,
      "☝": 2572,
      "☞": 2573,
      "☠": 2574,
      "☢": 2575,
      "☣": 2576,
      "☤": 2577,
      "☥": 2578,
      "☪": 2579,
      "☭": 2580,
      "☮": 2581,
      "☯": 2582,
      "☸": 2583,
      "☺": 2584,
      "☻": 2585,
      "☼": 2586,
      "☽": 2587,
      "☾": 2588,
      "☿": 2589,
      "♀": 2590,
      "♂": 2591,
      "♑": 2592,
      "♔": 2593,
      "♚": 2594,
      "♝": 2595,
      "♟": 2596,
      "♠": 2597,
      "♣": 2598,
      "♥": 2599,
      "♦": 2600,
      "♨": 2601,
      "♩": 2602,
      "♪": 2603,
      "♫": 2604,
      "♬": 2605,
      "♭": 2606,
      "♮": 2607,
      "♯": 2608,
      "⚇": 2609,
      "⚔": 2610,
      "⚞": 2611,
      "⚟": 2612,
      "⚡": 2613,
      "✄": 2614,
      "✆": 2615,
      "✈": 2616,
      "✉": 2617,
      "✋": 2618,
      "✌": 2619,
      "✍": 2620,
      "✎": 2621,
      "✐": 2622,
      "✒": 2623,
      "✓": 2624,
      "✔": 2625,
      "✗": 2626,
      "✘": 2627,
      "✝": 2628,
      "✞": 2629,
      "✡": 2630,
      "✤": 2631,
      "✪": 2632,
      "✫": 2633,
      "✭": 2634,
      "✰": 2635,
      "✽": 2636,
      "✿": 2637,
      "❄": 2638,
      "❅": 2639,
      "❉": 2640,
      "❖": 2641,
      "❝": 2642,
      "❞": 2643,
      "❣": 2644,
      "❤": 2645,
      "❥": 2646,
      "❦": 2647,
      "➔": 2648,
      "➜": 2649,
      "➥": 2650,
      "➨": 2651,
      "➪": 2652,
      "➲": 2653,
      "⟨": 2654,
      "⟩": 2655,
      "⟲": 2656,
      "⡭": 2657,
      "⨹": 2658,
      "⬅": 2659,
      "Ᵽ": 2660,
      "ⱷ": 2661,
      "ⲁ": 2662,
      "ⲃ": 2663,
      "ⲇ": 2664,
      "ⲉ": 2665,
      "ⲋ": 2666,
      "ⲏ": 2667,
      "ⲓ": 2668,
      "ⲕ": 2669,
      "ⲗ": 2670,
      "ⲛ": 2671,
      "ⲟ": 2672,
      "ⲡ": 2673,
      "ⲣ": 2674,
      "ⲥ": 2675,
      "ⲧ": 2676,
      "ⲩ": 2677,
      "ⲱ": 2678,
      "⳽": 2679,
      "、": 2680,
      "。": 2681,
      "〇": 2682,
      "〈": 2683,
      "〉": 2684,
      "《": 2685,
      "》": 2686,
      "「": 2687,
      "」": 2688,
      "『": 2689,
      "』": 2690,
      "【": 2691,
      "】": 2692,
      "あ": 2693,
      "ぃ": 2694,
      "い": 2695,
      "う": 2696,
      "え": 2697,
      "お": 2698,
      "か": 2699,
      "が": 2700,
      "き": 2701,
      "ぎ": 2702,
      "く": 2703,
      "ぐ": 2704,
      "け": 2705,
      "げ": 2706,
      "こ": 2707,
      "ご": 2708,
      "さ": 2709,
      "ざ": 2710,
      "し": 2711,
      "じ": 2712,
      "す": 2713,
      "ず": 2714,
      "せ": 2715,
      "ぜ": 2716,
      "そ": 2717,
      "ぞ": 2718,
      "た": 2719,
      "だ": 2720,
      "ち": 2721,
      "ぢ": 2722,
      "っ": 2723,
      "つ": 2724,
      "づ": 2725,
      "て": 2726,
      "で": 2727,
      "と": 2728,
      "ど": 2729,
      "な": 2730,
      "に": 2731,
      "ぬ": 2732,
      "ね": 2733,
      "の": 2734,
      "は": 2735,
      "ば": 2736,
      "ぱ": 2737,
      "ひ": 2738,
      "び": 2739,
      "ふ": 2740,
      "ぶ": 2741,
      "へ": 2742,
      "べ": 2743,
      "ほ": 2744,
      "ま": 2745,
      "み": 2746,
      "む": 2747,
      "め": 2748,
      "も": 2749,
      "ゃ": 2750,
      "や": 2751,
      "ゅ": 2752,
      "ゆ": 2753,
      "ょ": 2754,
      "よ": 2755,
      "ら": 2756,
      "り": 2757,
      "る": 2758,
      "れ": 2759,
      "ろ": 2760,
      "ゎ": 2761,
      "わ": 2762,
      "ゐ": 2763,
      "ゑ": 2764,
      "を": 2765,
      "ん": 2766,
      "ァ": 2767,
      "ア": 2768,
      "ィ": 2769,
      "イ": 2770,
      "ウ": 2771,
      "ェ": 2772,
      "エ": 2773,
      "オ": 2774,
      "カ": 2775,
      "ガ": 2776,
      "キ": 2777,
      "ギ": 2778,
      "ク": 2779,
      "グ": 2780,
      "ケ": 2781,
      "ゲ": 2782,
      "コ": 2783,
      "ゴ": 2784,
      "サ": 2785,
      "ザ": 2786,
      "シ": 2787,
      "ジ": 2788,
      "ス": 2789,
      "ズ": 2790,
      "セ": 2791,
      "ゼ": 2792,
      "ソ": 2793,
      "タ": 2794,
      "チ": 2795,
      "ッ": 2796,
      "ツ": 2797,
      "テ": 2798,
      "デ": 2799,
      "ト": 2800,
      "ド": 2801,
      "ナ": 2802,
      "ニ": 2803,
      "ヌ": 2804,
      "ノ": 2805,
      "ハ": 2806,
      "バ": 2807,
      "パ": 2808,
      "ヒ": 2809,
      "ビ": 2810,
      "ピ": 2811,
      "フ": 2812,
      "ブ": 2813,
      "プ": 2814,
      "ヘ": 2815,
      "ベ": 2816,
      "ペ": 2817,
      "ホ": 2818,
      "ボ": 2819,
      "ポ": 2820,
      "マ": 2821,
      "ム": 2822,
      "メ": 2823,
      "モ": 2824,
      "ャ": 2825,
      "ュ": 2826,
      "ョ": 2827,
      "ラ": 2828,
      "リ": 2829,
      "ル": 2830,
      "レ": 2831,
      "ロ": 2832,
      "ヮ": 2833,
      "ワ": 2834,
      "ン": 2835,
      "ヴ": 2836,
      "ヶ": 2837,
      "・": 2838,
      "ー": 2839,
      "ヽ": 2840,
      "㄀": 2841,
      "ㄉ": 2842,
      "ㄏ": 2843,
      "ㄤ": 2844,
      "ㄧ": 2845,
      "ㄨ": 2846,
      "ㄱ": 2847,
      "ㄷ": 2848,
      "ㅂ": 2849,
      "ㅅ": 2850,
      "ㅇ": 2851,
      "ㅋ": 2852,
      "ㅠ": 2853,
      "ㆍ": 2854,
      "㈀": 2855,
      "㊟": 2856,
      "㌀": 2857,
      "㎥": 2858,
      "㐀": 2859,
      "㔀": 2860,
      "㘀": 2861,
      "㜀": 2862,
      "㠀": 2863,
      "㤀": 2864,
      "㨀": 2865,
      "一": 2866,
      "丁": 2867,
      "七": 2868,
      "万": 2869,
      "丈": 2870,
      "三": 2871,
      "上": 2872,
      "下": 2873,
      "不": 2874,
      "与": 2875,
      "丑": 2876,
      "专": 2877,
      "且": 2878,
      "世": 2879,
      "业": 2880,
      "东": 2881,
      "丝": 2882,
      "丟": 2883,
      "两": 2884,
      "严": 2885,
      "並": 2886,
      "个": 2887,
      "中": 2888,
      "丰": 2889,
      "为": 2890,
      "主": 2891,
      "乃": 2892,
      "久": 2893,
      "么": 2894,
      "义": 2895,
      "之": 2896,
      "乎": 2897,
      "乐": 2898,
      "乗": 2899,
      "乘": 2900,
      "乙": 2901,
      "九": 2902,
      "也": 2903,
      "习": 2904,
      "乡": 2905,
      "书": 2906,
      "买": 2907,
      "乱": 2908,
      "乾": 2909,
      "了": 2910,
      "予": 2911,
      "事": 2912,
      "二": 2913,
      "于": 2914,
      "亓": 2915,
      "五": 2916,
      "井": 2917,
      "亚": 2918,
      "些": 2919,
      "亞": 2920,
      "亡": 2921,
      "交": 2922,
      "亦": 2923,
      "产": 2924,
      "享": 2925,
      "京": 2926,
      "亭": 2927,
      "亮": 2928,
      "亲": 2929,
      "人": 2930,
      "什": 2931,
      "仅": 2932,
      "仇": 2933,
      "今": 2934,
      "介": 2935,
      "从": 2936,
      "仓": 2937,
      "仔": 2938,
      "仕": 2939,
      "他": 2940,
      "付": 2941,
      "仙": 2942,
      "代": 2943,
      "令": 2944,
      "以": 2945,
      "仪": 2946,
      "们": 2947,
      "仮": 2948,
      "仰": 2949,
      "仲": 2950,
      "件": 2951,
      "价": 2952,
      "任": 2953,
      "份": 2954,
      "仿": 2955,
      "伀": 2956,
      "企": 2957,
      "伊": 2958,
      "休": 2959,
      "优": 2960,
      "伙": 2961,
      "会": 2962,
      "伝": 2963,
      "传": 2964,
      "伤": 2965,
      "伦": 2966,
      "伯": 2967,
      "似": 2968,
      "但": 2969,
      "佈": 2970,
      "位": 2971,
      "低": 2972,
      "住": 2973,
      "佐": 2974,
      "体": 2975,
      "何": 2976,
      "余": 2977,
      "佛": 2978,
      "作": 2979,
      "你": 2980,
      "佩": 2981,
      "佳": 2982,
      "使": 2983,
      "來": 2984,
      "例": 2985,
      "侏": 2986,
      "依": 2987,
      "侮": 2988,
      "侯": 2989,
      "侵": 2990,
      "便": 2991,
      "係": 2992,
      "促": 2993,
      "俗": 2994,
      "俚": 2995,
      "保": 2996,
      "信": 2997,
      "修": 2998,
      "俱": 2999,
      "個": 3000,
      "倍": 3001,
      "們": 3002,
      "倒": 3003,
      "候": 3004,
      "借": 3005,
      "倭": 3006,
      "值": 3007,
      "假": 3008,
      "偉": 3009,
      "偏": 3010,
      "做": 3011,
      "停": 3012,
      "健": 3013,
      "側": 3014,
      "偶": 3015,
      "傀": 3016,
      "傑": 3017,
      "備": 3018,
      "傲": 3019,
      "傳": 3020,
      "働": 3021,
      "像": 3022,
      "僑": 3023,
      "儀": 3024,
      "億": 3025,
      "儌": 3026,
      "儒": 3027,
      "儡": 3028,
      "優": 3029,
      "儿": 3030,
      "元": 3031,
      "兄": 3032,
      "充": 3033,
      "先": 3034,
      "光": 3035,
      "克": 3036,
      "免": 3037,
      "入": 3038,
      "內": 3039,
      "全": 3040,
      "兩": 3041,
      "八": 3042,
      "公": 3043,
      "六": 3044,
      "共": 3045,
      "关": 3046,
      "兵": 3047,
      "其": 3048,
      "具": 3049,
      "典": 3050,
      "兼": 3051,
      "冀": 3052,
      "内": 3053,
      "册": 3054,
      "再": 3055,
      "冒": 3056,
      "写": 3057,
      "军": 3058,
      "冬": 3059,
      "冰": 3060,
      "冲": 3061,
      "决": 3062,
      "况": 3063,
      "准": 3064,
      "凉": 3065,
      "几": 3066,
      "凡": 3067,
      "凤": 3068,
      "凯": 3069,
      "凰": 3070,
      "出": 3071,
      "击": 3072,
      "刀": 3073,
      "分": 3074,
      "切": 3075,
      "刑": 3076,
      "划": 3077,
      "列": 3078,
      "刘": 3079,
      "则": 3080,
      "创": 3081,
      "初": 3082,
      "删": 3083,
      "判": 3084,
      "別": 3085,
      "利": 3086,
      "别": 3087,
      "到": 3088,
      "制": 3089,
      "刺": 3090,
      "刻": 3091,
      "則": 3092,
      "削": 3093,
      "剌": 3094,
      "前": 3095,
      "剧": 3096,
      "剪": 3097,
      "副": 3098,
      "割": 3099,
      "創": 3100,
      "劇": 3101,
      "劉": 3102,
      "力": 3103,
      "办": 3104,
      "功": 3105,
      "加": 3106,
      "务": 3107,
      "动": 3108,
      "助": 3109,
      "努": 3110,
      "労": 3111,
      "势": 3112,
      "勃": 3113,
      "勉": 3114,
      "勒": 3115,
      "動": 3116,
      "務": 3117,
      "勝": 3118,
      "勞": 3119,
      "匀": 3120,
      "包": 3121,
      "匕": 3122,
      "化": 3123,
      "北": 3124,
      "区": 3125,
      "医": 3126,
      "區": 3127,
      "十": 3128,
      "千": 3129,
      "午": 3130,
      "半": 3131,
      "卋": 3132,
      "华": 3133,
      "卐": 3134,
      "卑": 3135,
      "单": 3136,
      "卖": 3137,
      "南": 3138,
      "博": 3139,
      "占": 3140,
      "卡": 3141,
      "卣": 3142,
      "卫": 3143,
      "卯": 3144,
      "印": 3145,
      "危": 3146,
      "即": 3147,
      "卷": 3148,
      "卻": 3149,
      "卿": 3150,
      "历": 3151,
      "厕": 3152,
      "厚": 3153,
      "原": 3154,
      "厥": 3155,
      "厦": 3156,
      "厭": 3157,
      "去": 3158,
      "参": 3159,
      "參": 3160,
      "又": 3161,
      "及": 3162,
      "友": 3163,
      "双": 3164,
      "反": 3165,
      "发": 3166,
      "取": 3167,
      "受": 3168,
      "变": 3169,
      "叛": 3170,
      "口": 3171,
      "古": 3172,
      "句": 3173,
      "只": 3174,
      "叫": 3175,
      "召": 3176,
      "可": 3177,
      "台": 3178,
      "史": 3179,
      "右": 3180,
      "号": 3181,
      "司": 3182,
      "吀": 3183,
      "吃": 3184,
      "各": 3185,
      "合": 3186,
      "吉": 3187,
      "同": 3188,
      "名": 3189,
      "后": 3190,
      "吏": 3191,
      "向": 3192,
      "吕": 3193,
      "吗": 3194,
      "君": 3195,
      "吞": 3196,
      "否": 3197,
      "吧": 3198,
      "含": 3199,
      "听": 3200,
      "启": 3201,
      "吳": 3202,
      "吴": 3203,
      "吸": 3204,
      "吹": 3205,
      "吾": 3206,
      "呀": 3207,
      "呆": 3208,
      "呈": 3209,
      "告": 3210,
      "员": 3211,
      "呢": 3212,
      "周": 3213,
      "味": 3214,
      "呼": 3215,
      "命": 3216,
      "和": 3217,
      "咨": 3218,
      "咯": 3219,
      "哀": 3220,
      "品": 3221,
      "哈": 3222,
      "哋": 3223,
      "响": 3224,
      "哥": 3225,
      "哪": 3226,
      "哭": 3227,
      "哲": 3228,
      "唉": 3229,
      "唐": 3230,
      "唯": 3231,
      "唱": 3232,
      "商": 3233,
      "啊": 3234,
      "問": 3235,
      "啥": 3236,
      "啼": 3237,
      "喂": 3238,
      "善": 3239,
      "喜": 3240,
      "單": 3241,
      "喷": 3242,
      "嗎": 3243,
      "嘆": 3244,
      "嘉": 3245,
      "嘲": 3246,
      "噂": 3247,
      "器": 3248,
      "四": 3249,
      "回": 3250,
      "因": 3251,
      "团": 3252,
      "団": 3253,
      "园": 3254,
      "囯": 3255,
      "困": 3256,
      "図": 3257,
      "围": 3258,
      "固": 3259,
      "国": 3260,
      "图": 3261,
      "圈": 3262,
      "國": 3263,
      "圍": 3264,
      "園": 3265,
      "土": 3266,
      "圣": 3267,
      "在": 3268,
      "地": 3269,
      "场": 3270,
      "圾": 3271,
      "坊": 3272,
      "坐": 3273,
      "块": 3274,
      "坚": 3275,
      "坡": 3276,
      "坪": 3277,
      "垃": 3278,
      "垮": 3279,
      "城": 3280,
      "域": 3281,
      "執": 3282,
      "培": 3283,
      "基": 3284,
      "堡": 3285,
      "報": 3286,
      "場": 3287,
      "堵": 3288,
      "塞": 3289,
      "塩": 3290,
      "填": 3291,
      "境": 3292,
      "墓": 3293,
      "墙": 3294,
      "增": 3295,
      "墨": 3296,
      "壁": 3297,
      "壇": 3298,
      "壞": 3299,
      "壤": 3300,
      "士": 3301,
      "壬": 3302,
      "声": 3303,
      "売": 3304,
      "壹": 3305,
      "处": 3306,
      "备": 3307,
      "変": 3308,
      "复": 3309,
      "夏": 3310,
      "外": 3311,
      "多": 3312,
      "夜": 3313,
      "夢": 3314,
      "大": 3315,
      "天": 3316,
      "太": 3317,
      "夫": 3318,
      "失": 3319,
      "头": 3320,
      "夷": 3321,
      "奇": 3322,
      "奈": 3323,
      "奉": 3324,
      "奔": 3325,
      "套": 3326,
      "女": 3327,
      "奴": 3328,
      "奶": 3329,
      "她": 3330,
      "好": 3331,
      "如": 3332,
      "妇": 3333,
      "妈": 3334,
      "妓": 3335,
      "妖": 3336,
      "妙": 3337,
      "妨": 3338,
      "妹": 3339,
      "姆": 3340,
      "始": 3341,
      "姐": 3342,
      "姑": 3343,
      "姓": 3344,
      "委": 3345,
      "姻": 3346,
      "威": 3347,
      "婊": 3348,
      "婚": 3349,
      "婦": 3350,
      "媒": 3351,
      "媽": 3352,
      "嫩": 3353,
      "嬰": 3354,
      "嬴": 3355,
      "子": 3356,
      "字": 3357,
      "存": 3358,
      "孛": 3359,
      "孝": 3360,
      "孤": 3361,
      "学": 3362,
      "孫": 3363,
      "孰": 3364,
      "學": 3365,
      "它": 3366,
      "宇": 3367,
      "守": 3368,
      "安": 3369,
      "宋": 3370,
      "完": 3371,
      "宕": 3372,
      "宗": 3373,
      "官": 3374,
      "定": 3375,
      "宝": 3376,
      "实": 3377,
      "実": 3378,
      "审": 3379,
      "客": 3380,
      "宣": 3381,
      "室": 3382,
      "宦": 3383,
      "宮": 3384,
      "害": 3385,
      "家": 3386,
      "容": 3387,
      "宽": 3388,
      "宿": 3389,
      "寇": 3390,
      "富": 3391,
      "察": 3392,
      "實": 3393,
      "寧": 3394,
      "審": 3395,
      "寬": 3396,
      "寮": 3397,
      "对": 3398,
      "寺": 3399,
      "导": 3400,
      "対": 3401,
      "封": 3402,
      "専": 3403,
      "将": 3404,
      "將": 3405,
      "專": 3406,
      "尉": 3407,
      "尊": 3408,
      "對": 3409,
      "小": 3410,
      "少": 3411,
      "尔": 3412,
      "尖": 3413,
      "尚": 3414,
      "尤": 3415,
      "就": 3416,
      "尻": 3417,
      "尾": 3418,
      "尿": 3419,
      "局": 3420,
      "屁": 3421,
      "层": 3422,
      "居": 3423,
      "屈": 3424,
      "屋": 3425,
      "屌": 3426,
      "屎": 3427,
      "展": 3428,
      "屯": 3429,
      "山": 3430,
      "岁": 3431,
      "岗": 3432,
      "岛": 3433,
      "岡": 3434,
      "岩": 3435,
      "岸": 3436,
      "島": 3437,
      "崇": 3438,
      "崎": 3439,
      "川": 3440,
      "州": 3441,
      "工": 3442,
      "差": 3443,
      "己": 3444,
      "已": 3445,
      "巴": 3446,
      "巾": 3447,
      "市": 3448,
      "布": 3449,
      "师": 3450,
      "希": 3451,
      "帖": 3452,
      "帝": 3453,
      "带": 3454,
      "師": 3455,
      "帮": 3456,
      "帰": 3457,
      "帶": 3458,
      "常": 3459,
      "幟": 3460,
      "幫": 3461,
      "干": 3462,
      "平": 3463,
      "年": 3464,
      "并": 3465,
      "幸": 3466,
      "幾": 3467,
      "广": 3468,
      "広": 3469,
      "庄": 3470,
      "庆": 3471,
      "序": 3472,
      "库": 3473,
      "应": 3474,
      "店": 3475,
      "府": 3476,
      "废": 3477,
      "度": 3478,
      "康": 3479,
      "廁": 3480,
      "廂": 3481,
      "廠": 3482,
      "廣": 3483,
      "廬": 3484,
      "延": 3485,
      "廷": 3486,
      "建": 3487,
      "开": 3488,
      "异": 3489,
      "弃": 3490,
      "弄": 3491,
      "式": 3492,
      "弗": 3493,
      "弘": 3494,
      "弟": 3495,
      "张": 3496,
      "弥": 3497,
      "張": 3498,
      "強": 3499,
      "弹": 3500,
      "强": 3501,
      "当": 3502,
      "录": 3503,
      "形": 3504,
      "影": 3505,
      "役": 3506,
      "彼": 3507,
      "征": 3508,
      "待": 3509,
      "很": 3510,
      "後": 3511,
      "徒": 3512,
      "得": 3513,
      "從": 3514,
      "御": 3515,
      "復": 3516,
      "循": 3517,
      "徭": 3518,
      "德": 3519,
      "徹": 3520,
      "心": 3521,
      "必": 3522,
      "忍": 3523,
      "志": 3524,
      "忘": 3525,
      "忙": 3526,
      "快": 3527,
      "念": 3528,
      "态": 3529,
      "怎": 3530,
      "思": 3531,
      "急": 3532,
      "性": 3533,
      "怨": 3534,
      "怪": 3535,
      "总": 3536,
      "恐": 3537,
      "恒": 3538,
      "恨": 3539,
      "恭": 3540,
      "息": 3541,
      "恵": 3542,
      "恶": 3543,
      "悔": 3544,
      "悠": 3545,
      "患": 3546,
      "您": 3547,
      "悲": 3548,
      "情": 3549,
      "惑": 3550,
      "惠": 3551,
      "惡": 3552,
      "想": 3553,
      "惶": 3554,
      "惹": 3555,
      "愀": 3556,
      "愁": 3557,
      "愈": 3558,
      "意": 3559,
      "愛": 3560,
      "感": 3561,
      "慕": 3562,
      "慢": 3563,
      "慧": 3564,
      "慬": 3565,
      "慰": 3566,
      "憂": 3567,
      "憎": 3568,
      "憲": 3569,
      "憾": 3570,
      "應": 3571,
      "懦": 3572,
      "懼": 3573,
      "戀": 3574,
      "戈": 3575,
      "戌": 3576,
      "戏": 3577,
      "成": 3578,
      "我": 3579,
      "或": 3580,
      "战": 3581,
      "截": 3582,
      "戰": 3583,
      "戴": 3584,
      "戶": 3585,
      "户": 3586,
      "戸": 3587,
      "房": 3588,
      "所": 3589,
      "手": 3590,
      "才": 3591,
      "打": 3592,
      "扣": 3593,
      "扩": 3594,
      "扯": 3595,
      "扰": 3596,
      "找": 3597,
      "承": 3598,
      "技": 3599,
      "抄": 3600,
      "把": 3601,
      "抓": 3602,
      "投": 3603,
      "抗": 3604,
      "折": 3605,
      "択": 3606,
      "护": 3607,
      "抵": 3608,
      "担": 3609,
      "拉": 3610,
      "拌": 3611,
      "拒": 3612,
      "拓": 3613,
      "拖": 3614,
      "拗": 3615,
      "拜": 3616,
      "拟": 3617,
      "拥": 3618,
      "括": 3619,
      "拯": 3620,
      "拼": 3621,
      "挀": 3622,
      "持": 3623,
      "指": 3624,
      "按": 3625,
      "挑": 3626,
      "捉": 3627,
      "捏": 3628,
      "捕": 3629,
      "换": 3630,
      "据": 3631,
      "掃": 3632,
      "授": 3633,
      "掉": 3634,
      "掌": 3635,
      "排": 3636,
      "掖": 3637,
      "掛": 3638,
      "掠": 3639,
      "探": 3640,
      "接": 3641,
      "控": 3642,
      "推": 3643,
      "提": 3644,
      "握": 3645,
      "援": 3646,
      "搀": 3647,
      "搅": 3648,
      "搏": 3649,
      "搜": 3650,
      "搬": 3651,
      "摄": 3652,
      "摆": 3653,
      "摧": 3654,
      "摩": 3655,
      "摸": 3656,
      "撃": 3657,
      "播": 3658,
      "撰": 3659,
      "擅": 3660,
      "擊": 3661,
      "操": 3662,
      "擲": 3663,
      "攀": 3664,
      "攝": 3665,
      "支": 3666,
      "收": 3667,
      "改": 3668,
      "攻": 3669,
      "放": 3670,
      "政": 3671,
      "故": 3672,
      "效": 3673,
      "敌": 3674,
      "敏": 3675,
      "救": 3676,
      "敗": 3677,
      "教": 3678,
      "敝": 3679,
      "敢": 3680,
      "散": 3681,
      "敦": 3682,
      "数": 3683,
      "敲": 3684,
      "整": 3685,
      "數": 3686,
      "文": 3687,
      "斑": 3688,
      "料": 3689,
      "斬": 3690,
      "断": 3691,
      "斯": 3692,
      "新": 3693,
      "斷": 3694,
      "方": 3695,
      "於": 3696,
      "旋": 3697,
      "族": 3698,
      "旗": 3699,
      "无": 3700,
      "既": 3701,
      "日": 3702,
      "早": 3703,
      "旭": 3704,
      "时": 3705,
      "昀": 3706,
      "昂": 3707,
      "昌": 3708,
      "明": 3709,
      "昏": 3710,
      "易": 3711,
      "星": 3712,
      "春": 3713,
      "昨": 3714,
      "昭": 3715,
      "是": 3716,
      "昼": 3717,
      "显": 3718,
      "時": 3719,
      "晓": 3720,
      "晕": 3721,
      "晚": 3722,
      "晩": 3723,
      "普": 3724,
      "景": 3725,
      "晶": 3726,
      "智": 3727,
      "暂": 3728,
      "暇": 3729,
      "暦": 3730,
      "暴": 3731,
      "曜": 3732,
      "曰": 3733,
      "更": 3734,
      "書": 3735,
      "曹": 3736,
      "曼": 3737,
      "最": 3738,
      "會": 3739,
      "月": 3740,
      "有": 3741,
      "朋": 3742,
      "服": 3743,
      "朗": 3744,
      "望": 3745,
      "朝": 3746,
      "期": 3747,
      "木": 3748,
      "未": 3749,
      "末": 3750,
      "本": 3751,
      "朮": 3752,
      "术": 3753,
      "朱": 3754,
      "机": 3755,
      "杂": 3756,
      "权": 3757,
      "李": 3758,
      "材": 3759,
      "村": 3760,
      "杜": 3761,
      "束": 3762,
      "条": 3763,
      "来": 3764,
      "杯": 3765,
      "東": 3766,
      "松": 3767,
      "板": 3768,
      "极": 3769,
      "构": 3770,
      "林": 3771,
      "果": 3772,
      "枝": 3773,
      "架": 3774,
      "某": 3775,
      "柜": 3776,
      "查": 3777,
      "柱": 3778,
      "柳": 3779,
      "栀": 3780,
      "栅": 3781,
      "标": 3782,
      "栏": 3783,
      "栗": 3784,
      "校": 3785,
      "样": 3786,
      "核": 3787,
      "根": 3788,
      "格": 3789,
      "案": 3790,
      "桌": 3791,
      "桔": 3792,
      "桜": 3793,
      "梁": 3794,
      "條": 3795,
      "梟": 3796,
      "梨": 3797,
      "械": 3798,
      "检": 3799,
      "棒": 3800,
      "棗": 3801,
      "棚": 3802,
      "椀": 3803,
      "椅": 3804,
      "楊": 3805,
      "楩": 3806,
      "業": 3807,
      "楯": 3808,
      "極": 3809,
      "楽": 3810,
      "概": 3811,
      "榜": 3812,
      "構": 3813,
      "様": 3814,
      "標": 3815,
      "模": 3816,
      "樣": 3817,
      "権": 3818,
      "橘": 3819,
      "橛": 3820,
      "機": 3821,
      "檄": 3822,
      "檔": 3823,
      "欄": 3824,
      "權": 3825,
      "次": 3826,
      "欢": 3827,
      "欣": 3828,
      "欧": 3829,
      "欲": 3830,
      "欸": 3831,
      "款": 3832,
      "歌": 3833,
      "歡": 3834,
      "止": 3835,
      "正": 3836,
      "此": 3837,
      "步": 3838,
      "武": 3839,
      "歩": 3840,
      "歯": 3841,
      "歲": 3842,
      "歸": 3843,
      "死": 3844,
      "残": 3845,
      "殤": 3846,
      "段": 3847,
      "殺": 3848,
      "毁": 3849,
      "母": 3850,
      "毎": 3851,
      "每": 3852,
      "比": 3853,
      "毫": 3854,
      "毬": 3855,
      "氏": 3856,
      "氐": 3857,
      "民": 3858,
      "氓": 3859,
      "气": 3860,
      "気": 3861,
      "氢": 3862,
      "氣": 3863,
      "氨": 3864,
      "水": 3865,
      "永": 3866,
      "求": 3867,
      "汇": 3868,
      "汉": 3869,
      "汝": 3870,
      "江": 3871,
      "污": 3872,
      "決": 3873,
      "沒": 3874,
      "沖": 3875,
      "没": 3876,
      "沢": 3877,
      "沦": 3878,
      "沪": 3879,
      "河": 3880,
      "沸": 3881,
      "油": 3882,
      "治": 3883,
      "況": 3884,
      "泉": 3885,
      "法": 3886,
      "泛": 3887,
      "泡": 3888,
      "波": 3889,
      "泥": 3890,
      "注": 3891,
      "泵": 3892,
      "洀": 3893,
      "洋": 3894,
      "洗": 3895,
      "洛": 3896,
      "津": 3897,
      "洪": 3898,
      "洲": 3899,
      "活": 3900,
      "派": 3901,
      "流": 3902,
      "浅": 3903,
      "浆": 3904,
      "测": 3905,
      "济": 3906,
      "浦": 3907,
      "浪": 3908,
      "浴": 3909,
      "海": 3910,
      "涂": 3911,
      "消": 3912,
      "涙": 3913,
      "涛": 3914,
      "涵": 3915,
      "涼": 3916,
      "淆": 3917,
      "淫": 3918,
      "深": 3919,
      "混": 3920,
      "渀": 3921,
      "清": 3922,
      "済": 3923,
      "渋": 3924,
      "渔": 3925,
      "渡": 3926,
      "温": 3927,
      "港": 3928,
      "游": 3929,
      "湖": 3930,
      "湯": 3931,
      "湾": 3932,
      "源": 3933,
      "準": 3934,
      "溪": 3935,
      "溫": 3936,
      "滇": 3937,
      "滑": 3938,
      "满": 3939,
      "滬": 3940,
      "漀": 3941,
      "演": 3942,
      "漢": 3943,
      "漫": 3944,
      "潰": 3945,
      "澄": 3946,
      "激": 3947,
      "濟": 3948,
      "濤": 3949,
      "濱": 3950,
      "瀀": 3951,
      "瀉": 3952,
      "瀬": 3953,
      "瀾": 3954,
      "灌": 3955,
      "灣": 3956,
      "火": 3957,
      "灯": 3958,
      "灵": 3959,
      "炬": 3960,
      "炭": 3961,
      "炮": 3962,
      "点": 3963,
      "為": 3964,
      "烂": 3965,
      "烈": 3966,
      "烧": 3967,
      "热": 3968,
      "焉": 3969,
      "無": 3970,
      "然": 3971,
      "煌": 3972,
      "煎": 3973,
      "煤": 3974,
      "照": 3975,
      "煮": 3976,
      "熊": 3977,
      "熟": 3978,
      "熱": 3979,
      "熾": 3980,
      "燃": 3981,
      "燈": 3982,
      "燒": 3983,
      "營": 3984,
      "燥": 3985,
      "爀": 3986,
      "父": 3987,
      "爺": 3988,
      "爽": 3989,
      "片": 3990,
      "版": 3991,
      "牌": 3992,
      "牙": 3993,
      "牛": 3994,
      "牝": 3995,
      "牡": 3996,
      "物": 3997,
      "特": 3998,
      "犊": 3999,
      "犬": 4000,
      "犯": 4001,
      "状": 4002,
      "狂": 4003,
      "狗": 4004,
      "独": 4005,
      "狱": 4006,
      "狼": 4007,
      "猀": 4008,
      "猎": 4009,
      "猛": 4010,
      "猜": 4011,
      "猫": 4012,
      "献": 4013,
      "獄": 4014,
      "獨": 4015,
      "獲": 4016,
      "玀": 4017,
      "率": 4018,
      "王": 4019,
      "环": 4020,
      "现": 4021,
      "玻": 4022,
      "珀": 4023,
      "珊": 4024,
      "珍": 4025,
      "珠": 4026,
      "班": 4027,
      "現": 4028,
      "琀": 4029,
      "球": 4030,
      "理": 4031,
      "琉": 4032,
      "琳": 4033,
      "瑙": 4034,
      "瑚": 4035,
      "瑞": 4036,
      "璃": 4037,
      "瓦": 4038,
      "甀": 4039,
      "甚": 4040,
      "生": 4041,
      "產": 4042,
      "用": 4043,
      "甫": 4044,
      "田": 4045,
      "由": 4046,
      "甲": 4047,
      "申": 4048,
      "电": 4049,
      "男": 4050,
      "町": 4051,
      "画": 4052,
      "界": 4053,
      "畏": 4054,
      "留": 4055,
      "畜": 4056,
      "畢": 4057,
      "略": 4058,
      "番": 4059,
      "當": 4060,
      "疆": 4061,
      "疋": 4062,
      "疏": 4063,
      "疮": 4064,
      "疯": 4065,
      "疾": 4066,
      "病": 4067,
      "痘": 4068,
      "痞": 4069,
      "痤": 4070,
      "癖": 4071,
      "発": 4072,
      "登": 4073,
      "發": 4074,
      "白": 4075,
      "百": 4076,
      "的": 4077,
      "皆": 4078,
      "皇": 4079,
      "皿": 4080,
      "盈": 4081,
      "盉": 4082,
      "益": 4083,
      "盒": 4084,
      "盛": 4085,
      "盟": 4086,
      "盧": 4087,
      "目": 4088,
      "盲": 4089,
      "直": 4090,
      "相": 4091,
      "眀": 4092,
      "省": 4093,
      "看": 4094,
      "県": 4095,
      "真": 4096,
      "眼": 4097,
      "眾": 4098,
      "着": 4099,
      "睛": 4100,
      "督": 4101,
      "瞒": 4102,
      "矛": 4103,
      "知": 4104,
      "短": 4105,
      "石": 4106,
      "码": 4107,
      "砂": 4108,
      "研": 4109,
      "砖": 4110,
      "破": 4111,
      "础": 4112,
      "硕": 4113,
      "硬": 4114,
      "确": 4115,
      "碎": 4116,
      "碟": 4117,
      "碰": 4118,
      "磁": 4119,
      "磨": 4120,
      "示": 4121,
      "礼": 4122,
      "社": 4123,
      "祈": 4124,
      "祐": 4125,
      "祖": 4126,
      "祝": 4127,
      "神": 4128,
      "祥": 4129,
      "禁": 4130,
      "禍": 4131,
      "福": 4132,
      "禢": 4133,
      "禧": 4134,
      "禮": 4135,
      "禱": 4136,
      "离": 4137,
      "秀": 4138,
      "私": 4139,
      "秋": 4140,
      "种": 4141,
      "科": 4142,
      "秘": 4143,
      "租": 4144,
      "积": 4145,
      "称": 4146,
      "程": 4147,
      "種": 4148,
      "稱": 4149,
      "稿": 4150,
      "穆": 4151,
      "穌": 4152,
      "積": 4153,
      "穎": 4154,
      "穣": 4155,
      "究": 4156,
      "空": 4157,
      "穿": 4158,
      "突": 4159,
      "窃": 4160,
      "窣": 4161,
      "立": 4162,
      "站": 4163,
      "竜": 4164,
      "竟": 4165,
      "章": 4166,
      "端": 4167,
      "竹": 4168,
      "竿": 4169,
      "笑": 4170,
      "第": 4171,
      "筆": 4172,
      "等": 4173,
      "答": 4174,
      "策": 4175,
      "筹": 4176,
      "箆": 4177,
      "算": 4178,
      "管": 4179,
      "箱": 4180,
      "節": 4181,
      "簡": 4182,
      "籌": 4183,
      "籍": 4184,
      "米": 4185,
      "类": 4186,
      "粉": 4187,
      "粒": 4188,
      "粟": 4189,
      "粵": 4190,
      "精": 4191,
      "粿": 4192,
      "糞": 4193,
      "糟": 4194,
      "系": 4195,
      "紀": 4196,
      "約": 4197,
      "紅": 4198,
      "納": 4199,
      "純": 4200,
      "紙": 4201,
      "級": 4202,
      "素": 4203,
      "紫": 4204,
      "終": 4205,
      "組": 4206,
      "結": 4207,
      "絕": 4208,
      "絡": 4209,
      "給": 4210,
      "統": 4211,
      "絶": 4212,
      "經": 4213,
      "継": 4214,
      "維": 4215,
      "網": 4216,
      "綴": 4217,
      "緑": 4218,
      "緒": 4219,
      "線": 4220,
      "緣": 4221,
      "編": 4222,
      "縄": 4223,
      "縣": 4224,
      "縮": 4225,
      "總": 4226,
      "織": 4227,
      "红": 4228,
      "约": 4229,
      "纪": 4230,
      "纳": 4231,
      "练": 4232,
      "组": 4233,
      "织": 4234,
      "终": 4235,
      "绍": 4236,
      "经": 4237,
      "结": 4238,
      "给": 4239,
      "络": 4240,
      "绝": 4241,
      "统": 4242,
      "继": 4243,
      "续": 4244,
      "维": 4245,
      "缎": 4246,
      "缘": 4247,
      "缩": 4248,
      "网": 4249,
      "罕": 4250,
      "罗": 4251,
      "罪": 4252,
      "置": 4253,
      "署": 4254,
      "罷": 4255,
      "羅": 4256,
      "羊": 4257,
      "羌": 4258,
      "美": 4259,
      "群": 4260,
      "義": 4261,
      "翁": 4262,
      "習": 4263,
      "翔": 4264,
      "翱": 4265,
      "翻": 4266,
      "翼": 4267,
      "老": 4268,
      "考": 4269,
      "者": 4270,
      "而": 4271,
      "耘": 4272,
      "耶": 4273,
      "耻": 4274,
      "聊": 4275,
      "职": 4276,
      "联": 4277,
      "聖": 4278,
      "聚": 4279,
      "聞": 4280,
      "聡": 4281,
      "聯": 4282,
      "聲": 4283,
      "職": 4284,
      "聽": 4285,
      "肄": 4286,
      "肉": 4287,
      "肌": 4288,
      "肏": 4289,
      "肢": 4290,
      "肤": 4291,
      "肥": 4292,
      "肯": 4293,
      "育": 4294,
      "背": 4295,
      "胜": 4296,
      "胡": 4297,
      "能": 4298,
      "脚": 4299,
      "脫": 4300,
      "脱": 4301,
      "脲": 4302,
      "腐": 4303,
      "腔": 4304,
      "腢": 4305,
      "腰": 4306,
      "腳": 4307,
      "臧": 4308,
      "自": 4309,
      "臭": 4310,
      "至": 4311,
      "致": 4312,
      "臺": 4313,
      "臼": 4314,
      "與": 4315,
      "興": 4316,
      "舉": 4317,
      "舎": 4318,
      "舞": 4319,
      "航": 4320,
      "般": 4321,
      "船": 4322,
      "良": 4323,
      "色": 4324,
      "艺": 4325,
      "芜": 4326,
      "芦": 4327,
      "花": 4328,
      "若": 4329,
      "英": 4330,
      "茂": 4331,
      "范": 4332,
      "茎": 4333,
      "茲": 4334,
      "荅": 4335,
      "草": 4336,
      "荒": 4337,
      "荙": 4338,
      "荡": 4339,
      "荣": 4340,
      "莜": 4341,
      "莱": 4342,
      "菅": 4343,
      "菓": 4344,
      "華": 4345,
      "萬": 4346,
      "落": 4347,
      "葉": 4348,
      "著": 4349,
      "葦": 4350,
      "蒙": 4351,
      "蒸": 4352,
      "蓙": 4353,
      "薩": 4354,
      "薬": 4355,
      "藏": 4356,
      "藥": 4357,
      "藩": 4358,
      "蘋": 4359,
      "蘭": 4360,
      "虎": 4361,
      "虚": 4362,
      "虜": 4363,
      "虞": 4364,
      "號": 4365,
      "虧": 4366,
      "虲": 4367,
      "虽": 4368,
      "虾": 4369,
      "蛋": 4370,
      "蛮": 4371,
      "蜕": 4372,
      "蝴": 4373,
      "蝶": 4374,
      "融": 4375,
      "蟲": 4376,
      "血": 4377,
      "行": 4378,
      "衍": 4379,
      "術": 4380,
      "衛": 4381,
      "衡": 4382,
      "表": 4383,
      "袁": 4384,
      "被": 4385,
      "裁": 4386,
      "装": 4387,
      "裕": 4388,
      "補": 4389,
      "裝": 4390,
      "裡": 4391,
      "裳": 4392,
      "裸": 4393,
      "製": 4394,
      "褐": 4395,
      "西": 4396,
      "要": 4397,
      "覆": 4398,
      "見": 4399,
      "視": 4400,
      "覚": 4401,
      "覧": 4402,
      "親": 4403,
      "観": 4404,
      "覺": 4405,
      "觀": 4406,
      "见": 4407,
      "观": 4408,
      "规": 4409,
      "视": 4410,
      "览": 4411,
      "解": 4412,
      "觸": 4413,
      "觿": 4414,
      "言": 4415,
      "計": 4416,
      "討": 4417,
      "記": 4418,
      "訛": 4419,
      "訣": 4420,
      "訪": 4421,
      "設": 4422,
      "許": 4423,
      "訳": 4424,
      "詀": 4425,
      "詔": 4426,
      "詞": 4427,
      "詠": 4428,
      "詣": 4429,
      "詬": 4430,
      "話": 4431,
      "該": 4432,
      "認": 4433,
      "誕": 4434,
      "誘": 4435,
      "語": 4436,
      "誠": 4437,
      "誤": 4438,
      "說": 4439,
      "説": 4440,
      "読": 4441,
      "誰": 4442,
      "課": 4443,
      "調": 4444,
      "請": 4445,
      "論": 4446,
      "諦": 4447,
      "諫": 4448,
      "諸": 4449,
      "謀": 4450,
      "謙": 4451,
      "謚": 4452,
      "講": 4453,
      "謝": 4454,
      "譎": 4455,
      "警": 4456,
      "譬": 4457,
      "議": 4458,
      "譴": 4459,
      "護": 4460,
      "讀": 4461,
      "變": 4462,
      "计": 4463,
      "订": 4464,
      "让": 4465,
      "训": 4466,
      "议": 4467,
      "记": 4468,
      "讲": 4469,
      "许": 4470,
      "论": 4471,
      "设": 4472,
      "访": 4473,
      "证": 4474,
      "诃": 4475,
      "诉": 4476,
      "词": 4477,
      "译": 4478,
      "试": 4479,
      "诗": 4480,
      "诚": 4481,
      "话": 4482,
      "诞": 4483,
      "诠": 4484,
      "该": 4485,
      "语": 4486,
      "误": 4487,
      "说": 4488,
      "请": 4489,
      "课": 4490,
      "谁": 4491,
      "调": 4492,
      "谅": 4493,
      "谢": 4494,
      "谱": 4495,
      "谷": 4496,
      "豆": 4497,
      "豈": 4498,
      "豊": 4499,
      "豌": 4500,
      "象": 4501,
      "豪": 4502,
      "豬": 4503,
      "負": 4504,
      "貢": 4505,
      "責": 4506,
      "買": 4507,
      "費": 4508,
      "貼": 4509,
      "賜": 4510,
      "賤": 4511,
      "賬": 4512,
      "賴": 4513,
      "负": 4514,
      "贡": 4515,
      "败": 4516,
      "账": 4517,
      "货": 4518,
      "贩": 4519,
      "贱": 4520,
      "贴": 4521,
      "费": 4522,
      "资": 4523,
      "赋": 4524,
      "赏": 4525,
      "赦": 4526,
      "走": 4527,
      "赴": 4528,
      "赶": 4529,
      "起": 4530,
      "超": 4531,
      "越": 4532,
      "趕": 4533,
      "趙": 4534,
      "趣": 4535,
      "足": 4536,
      "跟": 4537,
      "跪": 4538,
      "路": 4539,
      "跳": 4540,
      "蹩": 4541,
      "躅": 4542,
      "躑": 4543,
      "身": 4544,
      "車": 4545,
      "軍": 4546,
      "輔": 4547,
      "輝": 4548,
      "輯": 4549,
      "輸": 4550,
      "轉": 4551,
      "车": 4552,
      "转": 4553,
      "载": 4554,
      "较": 4555,
      "辉": 4556,
      "辑": 4557,
      "输": 4558,
      "辛": 4559,
      "辞": 4560,
      "辭": 4561,
      "辱": 4562,
      "辺": 4563,
      "込": 4564,
      "达": 4565,
      "过": 4566,
      "迎": 4567,
      "运": 4568,
      "近": 4569,
      "还": 4570,
      "这": 4571,
      "进": 4572,
      "远": 4573,
      "连": 4574,
      "迫": 4575,
      "述": 4576,
      "迷": 4577,
      "追": 4578,
      "退": 4579,
      "送": 4580,
      "逃": 4581,
      "逆": 4582,
      "這": 4583,
      "通": 4584,
      "造": 4585,
      "連": 4586,
      "進": 4587,
      "逻": 4588,
      "遂": 4589,
      "遇": 4590,
      "遊": 4591,
      "運": 4592,
      "遍": 4593,
      "過": 4594,
      "道": 4595,
      "達": 4596,
      "遗": 4597,
      "遠": 4598,
      "遢": 4599,
      "遣": 4600,
      "遮": 4601,
      "遯": 4602,
      "選": 4603,
      "避": 4604,
      "邀": 4605,
      "還": 4606,
      "邈": 4607,
      "邋": 4608,
      "那": 4609,
      "邪": 4610,
      "郎": 4611,
      "郑": 4612,
      "郡": 4613,
      "部": 4614,
      "郭": 4615,
      "都": 4616,
      "鄙": 4617,
      "鄧": 4618,
      "酋": 4619,
      "酌": 4620,
      "配": 4621,
      "酒": 4622,
      "酯": 4623,
      "酸": 4624,
      "醫": 4625,
      "释": 4626,
      "里": 4627,
      "重": 4628,
      "野": 4629,
      "量": 4630,
      "金": 4631,
      "鈴": 4632,
      "銀": 4633,
      "銅": 4634,
      "錦": 4635,
      "錯": 4636,
      "録": 4637,
      "鍾": 4638,
      "鎖": 4639,
      "鏡": 4640,
      "鐘": 4641,
      "鐵": 4642,
      "钾": 4643,
      "铁": 4644,
      "锁": 4645,
      "锦": 4646,
      "镇": 4647,
      "長": 4648,
      "长": 4649,
      "間": 4650,
      "関": 4651,
      "閩": 4652,
      "閪": 4653,
      "閱": 4654,
      "闘": 4655,
      "關": 4656,
      "门": 4657,
      "闪": 4658,
      "问": 4659,
      "闯": 4660,
      "闲": 4661,
      "间": 4662,
      "闸": 4663,
      "闻": 4664,
      "阅": 4665,
      "阎": 4666,
      "阮": 4667,
      "防": 4668,
      "阴": 4669,
      "阻": 4670,
      "阿": 4671,
      "附": 4672,
      "际": 4673,
      "陆": 4674,
      "陈": 4675,
      "陌": 4676,
      "降": 4677,
      "限": 4678,
      "院": 4679,
      "除": 4680,
      "险": 4681,
      "陪": 4682,
      "陳": 4683,
      "陵": 4684,
      "陷": 4685,
      "陸": 4686,
      "険": 4687,
      "陽": 4688,
      "隆": 4689,
      "隐": 4690,
      "隔": 4691,
      "隠": 4692,
      "隨": 4693,
      "隴": 4694,
      "隻": 4695,
      "难": 4696,
      "雄": 4697,
      "集": 4698,
      "雖": 4699,
      "雜": 4700,
      "雞": 4701,
      "難": 4702,
      "雪": 4703,
      "雲": 4704,
      "零": 4705,
      "雷": 4706,
      "電": 4707,
      "需": 4708,
      "露": 4709,
      "霸": 4710,
      "靈": 4711,
      "青": 4712,
      "静": 4713,
      "靜": 4714,
      "非": 4715,
      "靠": 4716,
      "面": 4717,
      "靴": 4718,
      "鞋": 4719,
      "韦": 4720,
      "韩": 4721,
      "音": 4722,
      "頁": 4723,
      "頂": 4724,
      "頑": 4725,
      "頗": 4726,
      "頭": 4727,
      "頼": 4728,
      "顆": 4729,
      "題": 4730,
      "願": 4731,
      "顧": 4732,
      "页": 4733,
      "顶": 4734,
      "顷": 4735,
      "项": 4736,
      "顺": 4737,
      "须": 4738,
      "预": 4739,
      "领": 4740,
      "颈": 4741,
      "频": 4742,
      "颗": 4743,
      "题": 4744,
      "風": 4745,
      "风": 4746,
      "飛": 4747,
      "飞": 4748,
      "食": 4749,
      "飯": 4750,
      "飽": 4751,
      "飾": 4752,
      "餐": 4753,
      "餘": 4754,
      "館": 4755,
      "饭": 4756,
      "馆": 4757,
      "首": 4758,
      "香": 4759,
      "馬": 4760,
      "馳": 4761,
      "駅": 4762,
      "駝": 4763,
      "駱": 4764,
      "騎": 4765,
      "騭": 4766,
      "驚": 4767,
      "马": 4768,
      "驰": 4769,
      "骋": 4770,
      "验": 4771,
      "骑": 4772,
      "體": 4773,
      "高": 4774,
      "髧": 4775,
      "鬼": 4776,
      "魏": 4777,
      "魔": 4778,
      "魚": 4779,
      "魯": 4780,
      "鮑": 4781,
      "鮮": 4782,
      "鲜": 4783,
      "鳥": 4784,
      "鳴": 4785,
      "鸦": 4786,
      "鹿": 4787,
      "麗": 4788,
      "麦": 4789,
      "麻": 4790,
      "麼": 4791,
      "黃": 4792,
      "黄": 4793,
      "黑": 4794,
      "默": 4795,
      "黨": 4796,
      "鼎": 4797,
      "鼻": 4798,
      "龍": 4799,
      "龙": 4800,
      "龜": 4801,
      "龱": 4802,
      "가": 4803,
      "각": 4804,
      "간": 4805,
      "갈": 4806,
      "감": 4807,
      "갑": 4808,
      "강": 4809,
      "같": 4810,
      "개": 4811,
      "거": 4812,
      "건": 4813,
      "걸": 4814,
      "것": 4815,
      "게": 4816,
      "겠": 4817,
      "겨": 4818,
      "격": 4819,
      "견": 4820,
      "결": 4821,
      "경": 4822,
      "계": 4823,
      "고": 4824,
      "공": 4825,
      "과": 4826,
      "관": 4827,
      "광": 4828,
      "괜": 4829,
      "괴": 4830,
      "교": 4831,
      "구": 4832,
      "국": 4833,
      "군": 4834,
      "굳": 4835,
      "굴": 4836,
      "궁": 4837,
      "권": 4838,
      "균": 4839,
      "그": 4840,
      "극": 4841,
      "근": 4842,
      "글": 4843,
      "금": 4844,
      "기": 4845,
      "길": 4846,
      "김": 4847,
      "까": 4848,
      "꺼": 4849,
      "께": 4850,
      "꼭": 4851,
      "꾸": 4852,
      "끌": 4853,
      "끼": 4854,
      "나": 4855,
      "낙": 4856,
      "날": 4857,
      "남": 4858,
      "낫": 4859,
      "내": 4860,
      "냅": 4861,
      "냉": 4862,
      "냐": 4863,
      "너": 4864,
      "넓": 4865,
      "넘": 4866,
      "넣": 4867,
      "네": 4868,
      "넷": 4869,
      "녀": 4870,
      "년": 4871,
      "념": 4872,
      "녕": 4873,
      "농": 4874,
      "놔": 4875,
      "누": 4876,
      "눈": 4877,
      "뉴": 4878,
      "는": 4879,
      "니": 4880,
      "님": 4881,
      "다": 4882,
      "단": 4883,
      "달": 4884,
      "담": 4885,
      "답": 4886,
      "당": 4887,
      "대": 4888,
      "더": 4889,
      "덕": 4890,
      "던": 4891,
      "덧": 4892,
      "데": 4893,
      "도": 4894,
      "독": 4895,
      "돌": 4896,
      "동": 4897,
      "돼": 4898,
      "됐": 4899,
      "되": 4900,
      "된": 4901,
      "될": 4902,
      "됩": 4903,
      "두": 4904,
      "둔": 4905,
      "드": 4906,
      "든": 4907,
      "들": 4908,
      "등": 4909,
      "디": 4910,
      "딜": 4911,
      "따": 4912,
      "땅": 4913,
      "때": 4914,
      "떠": 4915,
      "떨": 4916,
      "똥": 4917,
      "뛰": 4918,
      "뜻": 4919,
      "라": 4920,
      "람": 4921,
      "랍": 4922,
      "랐": 4923,
      "랑": 4924,
      "래": 4925,
      "량": 4926,
      "러": 4927,
      "런": 4928,
      "럼": 4929,
      "렇": 4930,
      "레": 4931,
      "려": 4932,
      "력": 4933,
      "련": 4934,
      "렵": 4935,
      "령": 4936,
      "로": 4937,
      "록": 4938,
      "론": 4939,
      "롭": 4940,
      "룡": 4941,
      "루": 4942,
      "룹": 4943,
      "류": 4944,
      "르": 4945,
      "른": 4946,
      "를": 4947,
      "리": 4948,
      "린": 4949,
      "릴": 4950,
      "림": 4951,
      "립": 4952,
      "링": 4953,
      "마": 4954,
      "만": 4955,
      "많": 4956,
      "말": 4957,
      "맛": 4958,
      "망": 4959,
      "맞": 4960,
      "매": 4961,
      "맥": 4962,
      "맨": 4963,
      "맷": 4964,
      "머": 4965,
      "먹": 4966,
      "멍": 4967,
      "메": 4968,
      "며": 4969,
      "면": 4970,
      "명": 4971,
      "모": 4972,
      "목": 4973,
      "몰": 4974,
      "못": 4975,
      "무": 4976,
      "문": 4977,
      "물": 4978,
      "뭔": 4979,
      "미": 4980,
      "민": 4981,
      "및": 4982,
      "바": 4983,
      "박": 4984,
      "밖": 4985,
      "반": 4986,
      "받": 4987,
      "발": 4988,
      "방": 4989,
      "배": 4990,
      "백": 4991,
      "버": 4992,
      "번": 4993,
      "범": 4994,
      "법": 4995,
      "벽": 4996,
      "변": 4997,
      "별": 4998,
      "병": 4999,
      "보": 5000,
      "복": 5001,
      "본": 5002,
      "볼": 5003,
      "봅": 5004,
      "봉": 5005,
      "봐": 5006,
      "부": 5007,
      "북": 5008,
      "분": 5009,
      "불": 5010,
      "붙": 5011,
      "블": 5012,
      "비": 5013,
      "빠": 5014,
      "빡": 5015,
      "빨": 5016,
      "뻗": 5017,
      "뿐": 5018,
      "쁘": 5019,
      "사": 5020,
      "삭": 5021,
      "산": 5022,
      "살": 5023,
      "삼": 5024,
      "상": 5025,
      "새": 5026,
      "색": 5027,
      "생": 5028,
      "서": 5029,
      "석": 5030,
      "선": 5031,
      "성": 5032,
      "세": 5033,
      "셨": 5034,
      "소": 5035,
      "속": 5036,
      "손": 5037,
      "솔": 5038,
      "솟": 5039,
      "송": 5040,
      "수": 5041,
      "순": 5042,
      "술": 5043,
      "스": 5044,
      "슨": 5045,
      "습": 5046,
      "승": 5047,
      "시": 5048,
      "식": 5049,
      "신": 5050,
      "실": 5051,
      "심": 5052,
      "십": 5053,
      "싱": 5054,
      "싶": 5055,
      "쌀": 5056,
      "써": 5057,
      "쎄": 5058,
      "쓰": 5059,
      "쓴": 5060,
      "아": 5061,
      "악": 5062,
      "안": 5063,
      "앉": 5064,
      "않": 5065,
      "알": 5066,
      "암": 5067,
      "앙": 5068,
      "앞": 5069,
      "애": 5070,
      "야": 5071,
      "약": 5072,
      "양": 5073,
      "어": 5074,
      "업": 5075,
      "없": 5076,
      "엇": 5077,
      "었": 5078,
      "엉": 5079,
      "에": 5080,
      "엑": 5081,
      "엔": 5082,
      "여": 5083,
      "역": 5084,
      "연": 5085,
      "열": 5086,
      "였": 5087,
      "영": 5088,
      "예": 5089,
      "오": 5090,
      "옥": 5091,
      "온": 5092,
      "올": 5093,
      "와": 5094,
      "완": 5095,
      "왜": 5096,
      "외": 5097,
      "요": 5098,
      "용": 5099,
      "우": 5100,
      "운": 5101,
      "울": 5102,
      "웃": 5103,
      "워": 5104,
      "원": 5105,
      "월": 5106,
      "위": 5107,
      "유": 5108,
      "육": 5109,
      "으": 5110,
      "은": 5111,
      "을": 5112,
      "음": 5113,
      "읍": 5114,
      "의": 5115,
      "이": 5116,
      "익": 5117,
      "인": 5118,
      "일": 5119,
      "읽": 5120,
      "입": 5121,
      "있": 5122,
      "잎": 5123,
      "자": 5124,
      "작": 5125,
      "잖": 5126,
      "잘": 5127,
      "잡": 5128,
      "장": 5129,
      "재": 5130,
      "쟁": 5131,
      "저": 5132,
      "적": 5133,
      "전": 5134,
      "절": 5135,
      "점": 5136,
      "접": 5137,
      "정": 5138,
      "제": 5139,
      "져": 5140,
      "조": 5141,
      "좀": 5142,
      "종": 5143,
      "좋": 5144,
      "좌": 5145,
      "죠": 5146,
      "주": 5147,
      "준": 5148,
      "줄": 5149,
      "중": 5150,
      "줘": 5151,
      "쥐": 5152,
      "즈": 5153,
      "즌": 5154,
      "즘": 5155,
      "지": 5156,
      "직": 5157,
      "진": 5158,
      "질": 5159,
      "짐": 5160,
      "집": 5161,
      "짜": 5162,
      "짝": 5163,
      "짠": 5164,
      "짱": 5165,
      "쪽": 5166,
      "찍": 5167,
      "찜": 5168,
      "차": 5169,
      "찮": 5170,
      "참": 5171,
      "창": 5172,
      "채": 5173,
      "책": 5174,
      "챙": 5175,
      "처": 5176,
      "척": 5177,
      "천": 5178,
      "철": 5179,
      "첫": 5180,
      "청": 5181,
      "체": 5182,
      "쳐": 5183,
      "최": 5184,
      "추": 5185,
      "축": 5186,
      "출": 5187,
      "충": 5188,
      "츠": 5189,
      "치": 5190,
      "칙": 5191,
      "칠": 5192,
      "침": 5193,
      "카": 5194,
      "캐": 5195,
      "컴": 5196,
      "케": 5197,
      "코": 5198,
      "콩": 5199,
      "쿠": 5200,
      "크": 5201,
      "큰": 5202,
      "키": 5203,
      "탁": 5204,
      "탄": 5205,
      "태": 5206,
      "터": 5207,
      "테": 5208,
      "텐": 5209,
      "토": 5210,
      "톡": 5211,
      "통": 5212,
      "트": 5213,
      "틀": 5214,
      "티": 5215,
      "팅": 5216,
      "판": 5217,
      "팔": 5218,
      "팥": 5219,
      "페": 5220,
      "편": 5221,
      "평": 5222,
      "포": 5223,
      "표": 5224,
      "푯": 5225,
      "풀": 5226,
      "풍": 5227,
      "프": 5228,
      "픈": 5229,
      "플": 5230,
      "피": 5231,
      "필": 5232,
      "하": 5233,
      "학": 5234,
      "한": 5235,
      "할": 5236,
      "함": 5237,
      "합": 5238,
      "해": 5239,
      "했": 5240,
      "행": 5241,
      "허": 5242,
      "헌": 5243,
      "헤": 5244,
      "헨": 5245,
      "현": 5246,
      "혈": 5247,
      "형": 5248,
      "혜": 5249,
      "호": 5250,
      "홈": 5251,
      "홍": 5252,
      "화": 5253,
      "확": 5254,
      "활": 5255,
      "회": 5256,
      "효": 5257,
      "후": 5258,
      "훼": 5259,
      "흘": 5260,
      "흥": 5261,
      "희": 5262,
      "히": 5263,
      "": 5264,
      "": 5265,
      "": 5266,
      "": 5267,
      "": 5268,
      "": 5269,
      "": 5270,
      "": 5271,
      "": 5272,
      "": 5273,
      "": 5274,
      "": 5275,
      "": 5276,
      "": 5277,
      "": 5278,
      "": 5279,
      "": 5280,
      "": 5281,
      "": 5282,
      "": 5283,
      "": 5284,
      "": 5285,
      "ﬀ": 5286,
      "ﬁ": 5287,
      "ﬂ": 5288,
      "ﭨ": 5289,
      "ﮍ": 5290,
      "ﮐ": 5291,
      "ﮑ": 5292,
      "ﮔ": 5293,
      "ﮟ": 5294,
      "ﮧ": 5295,
      "ﮨ": 5296,
      "ﮭ": 5297,
      "ﮯ": 5298,
      "ﯽ": 5299,
      "ﯿ": 5300,
      "ﷺ": 5301,
      "︵": 5302,
      "︶": 5303,
      "︻": 5304,
      "︿": 5305,
      "ﺀ": 5306,
      "ﺁ": 5307,
      "ﺂ": 5308,
      "ﺃ": 5309,
      "ﺄ": 5310,
      "ﺇ": 5311,
      "ﺈ": 5312,
      "ﺉ": 5313,
      "ﺋ": 5314,
      "ﺍ": 5315,
      "ﺎ": 5316,
      "ﺏ": 5317,
      "ﺐ": 5318,
      "ﺑ": 5319,
      "ﺒ": 5320,
      "ﺓ": 5321,
      "ﺔ": 5322,
      "ﺕ": 5323,
      "ﺖ": 5324,
      "ﺗ": 5325,
      "ﺘ": 5326,
      "ﺛ": 5327,
      "ﺜ": 5328,
      "ﺟ": 5329,
      "ﺠ": 5330,
      "ﺣ": 5331,
      "ﺤ": 5332,
      "ﺧ": 5333,
      "ﺨ": 5334,
      "ﺩ": 5335,
      "ﺪ": 5336,
      "ﺫ": 5337,
      "ﺬ": 5338,
      "ﺭ": 5339,
      "ﺮ": 5340,
      "ﺯ": 5341,
      "ﺰ": 5342,
      "ﺳ": 5343,
      "ﺴ": 5344,
      "ﺸ": 5345,
      "ﺻ": 5346,
      "ﺼ": 5347,
      "ﻀ": 5348,
      "ﻃ": 5349,
      "ﻄ": 5350,
      "ﻇ": 5351,
      "ﻈ": 5352,
      "ﻊ": 5353,
      "ﻋ": 5354,
      "ﻌ": 5355,
      "ﻐ": 5356,
      "ﻒ": 5357,
      "ﻓ": 5358,
      "ﻔ": 5359,
      "ﻕ": 5360,
      "ﻘ": 5361,
      "ﻚ": 5362,
      "ﻛ": 5363,
      "ﻜ": 5364,
      "ﻝ": 5365,
      "ﻞ": 5366,
      "ﻟ": 5367,
      "ﻠ": 5368,
      "ﻡ": 5369,
      "ﻢ": 5370,
      "ﻣ": 5371,
      "ﻤ": 5372,
      "ﻥ": 5373,
      "ﻦ": 5374,
      "ﻧ": 5375,
      "ﻨ": 5376,
      "ﻫ": 5377,
      "ﻬ": 5378,
      "ﻭ": 5379,
      "ﻮ": 5380,
      "ﻰ": 5381,
      "ﻱ": 5382,
      "ﻲ": 5383,
      "ﻳ": 5384,
      "ﻴ": 5385,
      "ﻷ": 5386,
      "ﻸ": 5387,
      "ﻹ": 5388,
      "ﻺ": 5389,
      "ﻻ": 5390,
      "ﻼ": 5391,
      "﻿": 5392,
      "！": 5393,
      "＂": 5394,
      "＄": 5395,
      "＇": 5396,
      "（": 5397,
      "）": 5398,
      "＊": 5399,
      "＋": 5400,
      "，": 5401,
      "－": 5402,
      "．": 5403,
      "／": 5404,
      "０": 5405,
      "１": 5406,
      "２": 5407,
      "３": 5408,
      "４": 5409,
      "５": 5410,
      "６": 5411,
      "７": 5412,
      "８": 5413,
      "９": 5414,
      "：": 5415,
      "；": 5416,
      "＝": 5417,
      "？": 5418,
      "Ａ": 5419,
      "Ｂ": 5420,
      "Ｃ": 5421,
      "Ｄ": 5422,
      "Ｅ": 5423,
      "Ｆ": 5424,
      "Ｇ": 5425,
      "Ｈ": 5426,
      "Ｉ": 5427,
      "Ｊ": 5428,
      "Ｋ": 5429,
      "Ｌ": 5430,
      "Ｍ": 5431,
      "Ｎ": 5432,
      "Ｏ": 5433,
      "Ｐ": 5434,
      "Ｑ": 5435,
      "Ｒ": 5436,
      "Ｓ": 5437,
      "Ｔ": 5438,
      "Ｕ": 5439,
      "Ｖ": 5440,
      "Ｗ": 5441,
      "Ｘ": 5442,
      "Ｙ": 5443,
      "［": 5444,
      "］": 5445,
      "＿": 5446,
      "｀": 5447,
      "ａ": 5448,
      "ｂ": 5449,
      "ｃ": 5450,
      "ｄ": 5451,
      "ｅ": 5452,
      "ｆ": 5453,
      "ｇ": 5454,
      "ｈ": 5455,
      "ｉ": 5456,
      "ｊ": 5457,
      "ｋ": 5458,
      "ｌ": 5459,
      "ｍ": 5460,
      "ｎ": 5461,
      "ｏ": 5462,
      "ｐ": 5463,
      "ｒ": 5464,
      "ｓ": 5465,
      "ｔ": 5466,
      "ｕ": 5467,
      "ｖ": 5468,
      "ｗ": 5469,
      "ｘ": 5470,
      "ｙ": 5471,
      "ｚ": 5472,
      "～": 5473,
      "｡": 5474,
      "･": 5475,
      "ｨ": 5476,
      "ｱ": 5477,
      "ｳ": 5478,
      "ｷ": 5479,
      "ﾃ": 5480,
      "ﾉ": 5481,
      "ﾍ": 5482,
      "ﾞ": 5483,
      "ﾟ": 5484,
      "￦": 5485,
      "�": 5486,
      "𐌰": 5487,
      "𐌲": 5488,
      "𐌴": 5489,
      "𐌹": 5490,
      "𐌿": 5491,
      "𒁳": 5492,
      "𝄇": 5493,
      "🍁": 5494,
      "🍌": 5495,
      "🎄": 5496,
      "🎊": 5497,
      "🎤": 5498,
      "🏼": 5499,
      "🐣": 5500,
      "👅": 5501,
      "👉": 5502,
      "👍": 5503,
      "👴": 5504,
      "💜": 5505,
      "💦": 5506,
      "💩": 5507,
      "💬": 5508,
      "📞": 5509,
      "📧": 5510,
      "🔹": 5511,
      "🖖": 5512,
      "🗽": 5513,
      "😀": 5514,
      "😂": 5515,
      "😃": 5516,
      "😄": 5517,
      "😅": 5518,
      "😉": 5519,
      "😊": 5520,
      "😏": 5521,
      "😓": 5522,
      "😔": 5523,
      "😜": 5524,
      "😠": 5525,
      "😡": 5526,
      "😢": 5527,
      "😳": 5528,
      "😵": 5529,
      "🙈": 5530,
      "🙉": 5531,
      "🙊": 5532,
      "𨳒": 5533,
      "th": 5534,
      "in": 5535,
      "re": 5536,
      "an": 5537,
      "on": 5538,
      "the": 5539,
      "ou": 5540,
      "at": 5541,
      "is": 5542,
      "er": 5543,
      "ed": 5544,
      "or": 5545,
      "it": 5546,
      "le": 5547,
      "en": 5548,
      "to": 5549,
      "al": 5550,
      "ing": 5551,
      "ar": 5552,
      "as": 5553,
      "es": 5554,
      "ic": 5555,
      "and": 5556,
      "of": 5557,
      "you": 5558,
      "ion": 5559,
      "st": 5560,
      "se": 5561,
      "be": 5562,
      "no": 5563,
      "om": 5564,
      "he": 5565,
      "ly": 5566,
      "ve": 5567,
      "\"\"": 5568,
      "that": 5569,
      "ag": 5570,
      "ac": 5571,
      "ad": 5572,
      "for": 5573,
      "ent": 5574,
      "ll": 5575,
      "wi": 5576,
      "me": 5577,
      "wh": 5578,
      "de": 5579,
      "not": 5580,
      "ro": 5581,
      "ha": 5582,
      "ut": 5583,
      "art": 5584,
      "us": 5585,
      "ab": 5586,
      "ld": 5587,
      "ver": 5588,
      "ch": 5589,
      "lo": 5590,
      "ay": 5591,
      "!!": 5592,
      "ig": 5593,
      "are": 5594,
      "con": 5595,
      "su": 5596,
      "id": 5597,
      "im": 5598,
      "ce": 5599,
      "ik": 5600,
      "ct": 5601,
      "this": 5602,
      "we": 5603,
      "pe": 5604,
      "un": 5605,
      "artic": 5606,
      "po": 5607,
      "ation": 5608,
      "age": 5609,
      "if": 5610,
      "ia": 5611,
      "mo": 5612,
      "do": 5613,
      "article": 5614,
      "so": 5615,
      "am": 5616,
      "ould": 5617,
      "have": 5618,
      "te": 5619,
      "ip": 5620,
      "ist": 5621,
      "with": 5622,
      "out": 5623,
      "com": 5624,
      "==": 5625,
      "ate": 5626,
      "ther": 5627,
      "ck": 5628,
      "ne": 5629,
      "ter": 5630,
      "your": 5631,
      "..": 5632,
      "pro": 5633,
      "The": 5634,
      "sh": 5635,
      "one": 5636,
      "tr": 5637,
      "ir": 5638,
      "was": 5639,
      "but": 5640,
      "our": 5641,
      "il": 5642,
      "::": 5643,
      "edia": 5644,
      "op": 5645,
      "Th": 5646,
      "ht": 5647,
      "all": 5648,
      "ak": 5649,
      "fr": 5650,
      "est": 5651,
      "ow": 5652,
      "ment": 5653,
      "any": 5654,
      "ur": 5655,
      "et": 5656,
      "ap": 5657,
      "edit": 5658,
      "ain": 5659,
      "go": 5660,
      "ex": 5661,
      "ome": 5662,
      "Wik": 5663,
      "qu": 5664,
      "ers": 5665,
      "pl": 5666,
      "ant": 5667,
      "ipedia": 5668,
      "ust": 5669,
      "page": 5670,
      "fe": 5671,
      "my": 5672,
      "use": 5673,
      "ally": 5674,
      "by": 5675,
      "can": 5676,
      "ink": 5677,
      "ase": 5678,
      "up": 5679,
      "ie": 5680,
      "some": 5681,
      "ul": 5682,
      "from": 5683,
      "ol": 5684,
      "act": 5685,
      "now": 5686,
      "res": 5687,
      "!!!!": 5688,
      "nd": 5689,
      "Wikipedia": 5690,
      "bo": 5691,
      "about": 5692,
      "ive": 5693,
      "alk": 5694,
      "wor": 5695,
      "ight": 5696,
      "here": 5697,
      "other": 5698,
      "cl": 5699,
      "ike": 5700,
      "dis": 5701,
      "thing": 5702,
      "has": 5703,
      "see": 5704,
      "like": 5705,
      "ces": 5706,
      "ren": 5707,
      "ity": 5708,
      "ame": 5709,
      "ack": 5710,
      "would": 5711,
      "let": 5712,
      "ok": 5713,
      "there": 5714,
      "00": 5715,
      "ard": 5716,
      "lease": 5717,
      "ank": 5718,
      "red": 5719,
      "will": 5720,
      "ies": 5721,
      "what": 5722,
      "ind": 5723,
      "add": 5724,
      "ions": 5725,
      "iv": 5726,
      "el": 5727,
      "ich": 5728,
      "CK": 5729,
      "able": 5730,
      "od": 5731,
      "ort": 5732,
      "fo": 5733,
      "just": 5734,
      "ite": 5735,
      "pr": 5736,
      "ide": 5737,
      "um": 5738,
      "You": 5739,
      "ish": 5740,
      "les": 5741,
      "ang": 5742,
      "per": 5743,
      "they": 5744,
      "talk": 5745,
      "It": 5746,
      "If": 5747,
      "ous": 5748,
      "don": 5749,
      "der": 5750,
      "oug": 5751,
      "who": 5752,
      "ill": 5753,
      "know": 5754,
      "cr": 5755,
      "ian": 5756,
      "ca": 5757,
      "sour": 5758,
      "should": 5759,
      "more": 5760,
      "ated": 5761,
      "ake": 5762,
      "which": 5763,
      "been": 5764,
      "ot": 5765,
      "ong": 5766,
      "ev": 5767,
      "cont": 5768,
      "gr": 5769,
      "uck": 5770,
      "think": 5771,
      "form": 5772,
      "way": 5773,
      "ho": 5774,
      "end": 5775,
      "ib": 5776,
      "very": 5777,
      "ree": 5778,
      "ial": 5779,
      "int": 5780,
      "read": 5781,
      "ti": 5782,
      "ast": 5783,
      "delet": 5784,
      "ine": 5785,
      "co": 5786,
      "ER": 5787,
      "cause": 5788,
      "...": 5789,
      "ction": 5790,
      "UCK": 5791,
      "gu": 5792,
      "ound": 5793,
      "Wh": 5794,
      "iz": 5795,
      "ass": 5796,
      "his": 5797,
      "cus": 5798,
      "spe": 5799,
      "say": 5800,
      "sion": 5801,
      "port": 5802,
      "OU": 5803,
      "pre": 5804,
      "lic": 5805,
      "nt": 5806,
      "ople": 5807,
      "Thank": 5808,
      "did": 5809,
      "get": 5810,
      "feren": 5811,
      "je": 5812,
      "min": 5813,
      "ud": 5814,
      "does": 5815,
      "ough": 5816,
      "ary": 5817,
      "wr": 5818,
      "people": 5819,
      "He": 5820,
      "ge": 5821,
      "In": 5822,
      "blo": 5823,
      "ages": 5824,
      "them": 5825,
      "pos": 5826,
      "This": 5827,
      "quest": 5828,
      "ure": 5829,
      "ra": 5830,
      "ess": 5831,
      "because": 5832,
      "only": 5833,
      "ser": 5834,
      "sel": 5835,
      "ory": 5836,
      "ans": 5837,
      "ep": 5838,
      "ign": 5839,
      "''": 5840,
      "FUCK": 5841,
      "may": 5842,
      "top": 5843,
      "need": 5844,
      "ue": 5845,
      "Please": 5846,
      "right": 5847,
      "ious": 5848,
      "YOU": 5849,
      "time": 5850,
      "ical": 5851,
      "em": 5852,
      "ence": 5853,
      "also": 5854,
      "ber": 5855,
      "TH": 5856,
      "AN": 5857,
      "ject": 5858,
      "!!!!!!!!": 5859,
      "rel": 5860,
      "ism": 5861,
      "ace": 5862,
      "ple": 5863,
      "work": 5864,
      "cor": 5865,
      "were": 5866,
      "ved": 5867,
      "its": 5868,
      "cons": 5869,
      "fuck": 5870,
      "cre": 5871,
      "pers": 5872,
      "wik": 5873,
      "ick": 5874,
      "articles": 5875,
      "link": 5876,
      "then": 5877,
      "pt": 5878,
      "av": 5879,
      "want": 5880,
      "ice": 5881,
      ").": 5882,
      "ub": 5883,
      "remo": 5884,
      "than": 5885,
      "ire": 5886,
      "self": 5887,
      "ci": 5888,
      "how": 5889,
      "when": 5890,
      "ors": 5891,
      "block": 5892,
      "put": 5893,
      "vie": 5894,
      "being": 5895,
      "ob": 5896,
      "discus": 5897,
      "Re": 5898,
      "hel": 5899,
      "19": 5900,
      "their": 5901,
      "IN": 5902,
      "ear": 5903,
      "under": 5904,
      "vert": 5905,
      "ry": 5906,
      "200": 5907,
      "cou": 5908,
      "ty": 5909,
      "had": 5910,
      "look": 5911,
      "name": 5912,
      "off": 5913,
      "mat": 5914,
      "person": 5915,
      "sa": 5916,
      "new": 5917,
      "::::": 5918,
      "inform": 5919,
      "come": 5920,
      "view": 5921,
      "back": 5922,
      "list": 5923,
      "ens": 5924,
      "ms": 5925,
      "ile": 5926,
      "RE": 5927,
      "help": 5928,
      "man": 5929,
      "sub": 5930,
      "20": 5931,
      "itt": 5932,
      "try": 5933,
      "ru": 5934,
      "make": 5935,
      "point": 5936,
      "again": 5937,
      "ations": 5938,
      "af": 5939,
      "chang": 5940,
      "fact": 5941,
      "ade": 5942,
      "even": 5943,
      "why": 5944,
      "comment": 5945,
      "fir": 5946,
      "ail": 5947,
      "over": 5948,
      "please": 5949,
      "tri": 5950,
      "IS": 5951,
      "Ch": 5952,
      "ose": 5953,
      "aa": 5954,
      "sp": 5955,
      "prob": 5956,
      "could": 5957,
      "bel": 5958,
      "fore": 5959,
      "des": 5960,
      "where": 5961,
      "information": 5962,
      "att": 5963,
      "ason": 5964,
      "ance": 5965,
      "cur": 5966,
      "pres": 5967,
      "sources": 5968,
      "stand": 5969,
      "good": 5970,
      "ww": 5971,
      "most": 5972,
      "WP": 5973,
      "used": 5974,
      "andal": 5975,
      "log": 5976,
      "ict": 5977,
      "bet": 5978,
      "ful": 5979,
      "DI": 5980,
      "such": 5981,
      "pp": 5982,
      "user": 5983,
      "Thanks": 5984,
      "ual": 5985,
      "ific": 5986,
      "lear": 5987,
      "section": 5988,
      "As": 5989,
      "au": 5990,
      "ition": 5991,
      "ke": 5992,
      "rest": 5993,
      "And": 5994,
      "ach": 5995,
      "tw": 5996,
      "Al": 5997,
      "AL": 5998,
      "incl": 5999,
      "xt": 6000,
      "arch": 6001,
      "Ar": 6002,
      "uch": 6003,
      "mer": 6004,
      "less": 6005,
      "mon": 6006,
      "ced": 6007,
      "well": 6008,
      "part": 6009,
      "source": 6010,
      "ince": 6011,
      "pages": 6012,
      "gg": 6013,
      "ask": 6014,
      "dif": 6015,
      "deletion": 6016,
      "find": 6017,
      "We": 6018,
      "her": 6019,
      "day": 6020,
      "lish": 6021,
      "war": 6022,
      "ates": 6023,
      "referen": 6024,
      "No": 6025,
      "gen": 6026,
      "own": 6027,
      "cent": 6028,
      "reason": 6029,
      "ng": 6030,
      "ph": 6031,
      "word": 6032,
      "vandal": 6033,
      "du": 6034,
      "tribut": 6035,
      "him": 6036,
      "11": 6037,
      "So": 6038,
      "aw": 6039,
      "first": 6040,
      "tem": 6041,
      "these": 6042,
      "//": 6043,
      "ually": 6044,
      "cy": 6045,
      "fa": 6046,
      "ied": 6047,
      "clo": 6048,
      "much": 6049,
      "into": 6050,
      "PO": 6051,
      "cer": 6052,
      "made": 6053,
      "editing": 6054,
      "many": 6055,
      "reg": 6056,
      "call": 6057,
      "ON": 6058,
      "sy": 6059,
      "really": 6060,
      "reat": 6061,
      "IT": 6062,
      "revert": 6063,
      "io": 6064,
      "mis": 6065,
      "),": 6066,
      "che": 6067,
      "There": 6068,
      "GG": 6069,
      "St": 6070,
      "bit": 6071,
      "fin": 6072,
      "ving": 6073,
      "cop": 6074,
      "sim": 6075,
      "every": 6076,
      "low": 6077,
      "ff": 6078,
      "cept": 6079,
      "hist": 6080,
      "discussion": 6081,
      "ting": 6082,
      "ts": 6083,
      "edits": 6084,
      "ise": 6085,
      "ating": 6086,
      "par": 6087,
      "same": 6088,
      "UT": 6089,
      "post": 6090,
      "An": 6091,
      "\"\".": 6092,
      "ave": 6093,
      "That": 6094,
      "HA": 6095,
      "inte": 6096,
      "tag": 6097,
      "cess": 6098,
      "Is": 6099,
      "wn": 6100,
      "deleted": 6101,
      "sup": 6102,
      "aim": 6103,
      "aph": 6104,
      "contribut": 6105,
      "What": 6106,
      "ma": 6107,
      "ning": 6108,
      "those": 6109,
      "polic": 6110,
      "sure": 6111,
      "ew": 6112,
      "state": 6113,
      "br": 6114,
      "bl": 6115,
      "mak": 6116,
      "too": 6117,
      "FA": 6118,
      "content": 6119,
      "spec": 6120,
      "ref": 6121,
      "going": 6122,
      "expl": 6123,
      "before": 6124,
      "ee": 6125,
      "issu": 6126,
      "two": 6127,
      ".\"\"": 6128,
      "col": 6129,
      "10": 6130,
      "place": 6131,
      "belie": 6132,
      "year": 6133,
      "=\"\"": 6134,
      "tp": 6135,
      "clear": 6136,
      "ible": 6137,
      "But": 6138,
      "ply": 6139,
      "still": 6140,
      "text": 6141,
      "://": 6142,
      "http": 6143,
      "though": 6144,
      "copy": 6145,
      "someone": 6146,
      "sign": 6147,
      "something": 6148,
      "oo": 6149,
      "Talk": 6150,
      "admin": 6151,
      "ult": 6152,
      "cit": 6153,
      "claim": 6154,
      "sing": 6155,
      "got": 6156,
      "after": 6157,
      "??": 6158,
      "agree": 6159,
      "wikipedia": 6160,
      "prov": 6161,
      "US": 6162,
      "ility": 6163,
      "said": 6164,
      "using": 6165,
      "inter": 6166,
      "ics": 6167,
      "IP": 6168,
      "org": 6169,
      "site": 6170,
      "ense": 6171,
      "non": 6172,
      "image": 6173,
      "since": 6174,
      "crit": 6175,
      "mention": 6176,
      "mar": 6177,
      "vi": 6178,
      "Ho": 6179,
      "llow": 6180,
      "rect": 6181,
      "proble": 6182,
      "Un": 6183,
      "vers": 6184,
      "inv": 6185,
      "OR": 6186,
      "THE": 6187,
      "mean": 6188,
      "added": 6189,
      "show": 6190,
      "pub": 6191,
      "Do": 6192,
      "pect": 6193,
      "free": 6194,
      "line": 6195,
      "ative": 6196,
      "ought": 6197,
      "main": 6198,
      "ased": 6199,
      "differen": 6200,
      "ize": 6201,
      "iable": 6202,
      "ress": 6203,
      "blocked": 6204,
      "ps": 6205,
      "comm": 6206,
      "long": 6207,
      "take": 6208,
      "tain": 6209,
      "might": 6210,
      "doesn": 6211,
      "pon": 6212,
      "**": 6213,
      "book": 6214,
      "ars": 6215,
      "ily": 6216,
      "NI": 6217,
      "correct": 6218,
      "med": 6219,
      "count": 6220,
      "ments": 6221,
      "without": 6222,
      "cho": 6223,
      "str": 6224,
      "....": 6225,
      "start": 6226,
      "ah": 6227,
      "ably": 6228,
      "ES": 6229,
      "ggest": 6230,
      "inst": 6231,
      "web": 6232,
      "real": 6233,
      "interest": 6234,
      "ines": 6235,
      "she": 6236,
      "igin": 6237,
      "sol": 6238,
      "subject": 6239,
      "contin": 6240,
      "case": 6241,
      "OT": 6242,
      "wever": 6243,
      "understand": 6244,
      "removed": 6245,
      "stop": 6246,
      "question": 6247,
      "suggest": 6248,
      "De": 6249,
      "ss": 6250,
      "box": 6251,
      "appe": 6252,
      "ards": 6253,
      "ove": 6254,
      "ident": 6255,
      "irect": 6256,
      "search": 6257,
      "editors": 6258,
      "vious": 6259,
      "\"\",": 6260,
      "better": 6261,
      "dy": 6262,
      "!!!!!!!!!!!!!!!!": 6263,
      "rent": 6264,
      "ular": 6265,
      "done": 6266,
      "LL": 6267,
      "az": 6268,
      "mem": 6269,
      "seems": 6270,
      "ency": 6271,
      "12": 6272,
      "includ": 6273,
      "NIGG": 6274,
      "Your": 6275,
      "AS": 6276,
      "another": 6277,
      "led": 6278,
      "Con": 6279,
      "For": 6280,
      "sum": 6281,
      "feel": 6282,
      "Pro": 6283,
      "igh": 6284,
      "leg": 6285,
      "mess": 6286,
      "origin": 6287,
      "keep": 6288,
      "UTC": 6289,
      "old": 6290,
      "ready": 6291,
      "never": 6292,
      "ME": 6293,
      "giv": 6294,
      "happ": 6295,
      "tern": 6296,
      "Hi": 6297,
      "unt": 6298,
      "ix": 6299,
      "follow": 6300,
      "num": 6301,
      "gener": 6302,
      "Be": 6303,
      "note": 6304,
      "shit": 6305,
      "cour": 6306,
      "ull": 6307,
      "sty": 6308,
      "How": 6309,
      "ational": 6310,
      "history": 6311,
      "believe": 6312,
      "anything": 6313,
      "ically": 6314,
      "appro": 6315,
      "adding": 6316,
      "cord": 6317,
      "ven": 6318,
      "ever": 6319,
      "ING": 6320,
      "ider": 6321,
      "wel": 6322,
      "ned": 6323,
      "things": 6324,
      "lect": 6325,
      "links": 6326,
      "ral": 6327,
      "change": 6328,
      "found": 6329,
      "yourself": 6330,
      "pri": 6331,
      "ith": 6332,
      "ys": 6333,
      "val": 6334,
      "tit": 6335,
      "check": 6336,
      "Eng": 6337,
      "OO": 6338,
      "exam": 6339,
      "big": 6340,
      "present": 6341,
      "support": 6342,
      "opin": 6343,
      "ither": 6344,
      "head": 6345,
      "AT": 6346,
      "Com": 6347,
      "hope": 6348,
      "cond": 6349,
      "actually": 6350,
      "FF": 6351,
      "''''": 6352,
      "ittle": 6353,
      "fl": 6354,
      "ath": 6355,
      "imes": 6356,
      "both": 6357,
      "nam": 6358,
      "personal": 6359,
      "lit": 6360,
      "respon": 6361,
      "style": 6362,
      "rele": 6363,
      "AR": 6364,
      "LE": 6365,
      "wer": 6366,
      "didn": 6367,
      "request": 6368,
      "ban": 6369,
      "ians": 6370,
      "wiki": 6371,
      "ger": 6372,
      "clop": 6373,
      "already": 6374,
      ":::": 6375,
      "ists": 6376,
      "land": 6377,
      "tak": 6378,
      "speed": 6379,
      "Im": 6380,
      "current": 6381,
      "argu": 6382,
      "review": 6383,
      "wrong": 6384,
      "poss": 6385,
      "policy": 6386,
      "copyright": 6387,
      "dec": 6388,
      "won": 6389,
      "aaaa": 6390,
      "comments": 6391,
      "NIGGER": 6392,
      "attack": 6393,
      "suck": 6394,
      "play": 6395,
      "18": 6396,
      "Br": 6397,
      "sent": 6398,
      "fair": 6399,
      "while": 6400,
      "ways": 6401,
      "llo": 6402,
      "comp": 6403,
      "defin": 6404,
      "care": 6405,
      "little": 6406,
      "POV": 6407,
      "descr": 6408,
      "explain": 6409,
      "My": 6410,
      "ability": 6411,
      "against": 6412,
      "graph": 6413,
      "problem": 6414,
      "lot": 6415,
      "ef": 6416,
      "istr": 6417,
      "thr": 6418,
      "sul": 6419,
      "vandalism": 6420,
      "14": 6421,
      "editor": 6422,
      "Why": 6423,
      "15": 6424,
      "reliable": 6425,
      "Go": 6426,
      "down": 6427,
      "different": 6428,
      "ild": 6429,
      "ale": 6430,
      "Amer": 6431,
      "ings": 6432,
      "above": 6433,
      "exper": 6434,
      "import": 6435,
      "EN": 6436,
      "__": 6437,
      "ude": 6438,
      "Wiki": 6439,
      "few": 6440,
      "last": 6441,
      "welcome": 6442,
      "Also": 6443,
      "~~": 6444,
      "sense": 6445,
      "else": 6446,
      "Americ": 6447,
      "nothing": 6448,
      "coun": 6449,
      "guide": 6450,
      "tion": 6451,
      "great": 6452,
      "UN": 6453,
      "remove": 6454,
      "13": 6455,
      "tell": 6456,
      "ves": 6457,
      "ft": 6458,
      "encyclop": 6459,
      "tic": 6460,
      "issue": 6461,
      "bor": 6462,
      "ateg": 6463,
      "give": 6464,
      "partic": 6465,
      "row": 6466,
      "consider": 6467,
      "lang": 6468,
      "WI": 6469,
      "ater": 6470,
      "lead": 6471,
      "trying": 6472,
      "thought": 6473,
      "must": 6474,
      "oc": 6475,
      "lif": 6476,
      "years": 6477,
      "ship": 6478,
      "sex": 6479,
      "rather": 6480,
      "ify": 6481,
      "ensus": 6482,
      "says": 6483,
      "orry": 6484,
      "und": 6485,
      "through": 6486,
      "others": 6487,
      "account": 6488,
      "world": 6489,
      "conf": 6490,
      "far": 6491,
      "discuss": 6492,
      "accept": 6493,
      "CO": 6494,
      "thank": 6495,
      "reference": 6496,
      "!!!": 6497,
      "ote": 6498,
      "anyone": 6499,
      "ited": 6500,
      "body": 6501,
      "User": 6502,
      "AND": 6503,
      "English": 6504,
      "load": 6505,
      "best": 6506,
      "Can": 6507,
      "New": 6508,
      "vis": 6509,
      "ten": 6510,
      "GA": 6511,
      "comple": 6512,
      "isn": 6513,
      "matter": 6514,
      "making": 6515,
      "erial": 6516,
      "Mo": 6517,
      "doing": 6518,
      "term": 6519,
      "ug": 6520,
      "langu": 6521,
      "prom": 6522,
      "lines": 6523,
      "write": 6524,
      "LO": 6525,
      "gay": 6526,
      "iting": 6527,
      "ri": 6528,
      "posed": 6529,
      "ins": 6530,
      "produ": 6531,
      "KK": 6532,
      "questions": 6533,
      "material": 6534,
      "pret": 6535,
      "probably": 6536,
      "sit": 6537,
      "report": 6538,
      "fect": 6539,
      "On": 6540,
      "Ad": 6541,
      "Se": 6542,
      "least": 6543,
      "upid": 6544,
      "ground": 6545,
      "UU": 6546,
      "www": 6547,
      "ator": 6548,
      "ks": 6549,
      "called": 6550,
      "SH": 6551,
      "To": 6552,
      "OP": 6553,
      "ZZ": 6554,
      "lar": 6555,
      "grou": 6556,
      "ately": 6557,
      "ween": 6558,
      "nor": 6559,
      "original": 6560,
      "continue": 6561,
      "ution": 6562,
      "vant": 6563,
      "enough": 6564,
      "etc": 6565,
      "either": 6566,
      "They": 6567,
      "around": 6568,
      "lete": 6569,
      "plac": 6570,
      "sur": 6571,
      "CH": 6572,
      "urther": 6573,
      "la": 6574,
      "jo": 6575,
      "certain": 6576,
      "itten": 6577,
      "ged": 6578,
      "references": 6579,
      "created": 6580,
      "nn": 6581,
      "simply": 6582,
      "ST": 6583,
      "ead": 6584,
      "Fr": 6585,
      "However": 6586,
      "appropri": 6587,
      "Fuck": 6588,
      "Sh": 6589,
      "trans": 6590,
      "inde": 6591,
      "idence": 6592,
      "specific": 6593,
      "opinion": 6594,
      "Not": 6595,
      "ret": 6596,
      "example": 6597,
      "bad": 6598,
      "between": 6599,
      "atch": 6600,
      "uff": 6601,
      "date": 6602,
      "exist": 6603,
      "consensus": 6604,
      "needs": 6605,
      "templ": 6606,
      "char": 6607,
      "recent": 6608,
      "stupid": 6609,
      "speedy": 6610,
      "bi": 6611,
      "life": 6612,
      "set": 6613,
      "leave": 6614,
      "seem": 6615,
      "fam": 6616,
      "Just": 6617,
      "written": 6618,
      "regard": 6619,
      "info": 6620,
      "17": 6621,
      "Or": 6622,
      "zz": 6623,
      "Ro": 6624,
      "move": 6625,
      "16": 6626,
      "const": 6627,
      "requ": 6628,
      "notable": 6629,
      "title": 6630,
      "Hello": 6631,
      "err": 6632,
      "test": 6633,
      "als": 6634,
      "mind": 6635,
      "pict": 6636,
      "address": 6637,
      "ash": 6638,
      "ier": 6639,
      "thor": 6640,
      "ED": 6641,
      "member": 6642,
      "kind": 6643,
      "pose": 6644,
      "research": 6645,
      "MO": 6646,
      "complete": 6647,
      "ents": 6648,
      "og": 6649,
      "appropriate": 6650,
      "version": 6651,
      "ided": 6652,
      "logy": 6653,
      "app": 6654,
      "important": 6655,
      "ified": 6656,
      "ner": 6657,
      "contro": 6658,
      "fil": 6659,
      "yy": 6660,
      "impro": 6661,
      "contr": 6662,
      "criter": 6663,
      "whe": 6664,
      "haps": 6665,
      "sm": 6666,
      "hand": 6667,
      "relevant": 6668,
      "enis": 6669,
      "Chr": 6670,
      "Bo": 6671,
      "hh": 6672,
      "ention": 6673,
      "public": 6674,
      "ALL": 6675,
      "mor": 6676,
      "reverted": 6677,
      "saying": 6678,
      "message": 6679,
      "commun": 6680,
      "concer": 6681,
      "SE": 6682,
      "fucking": 6683,
      "delete": 6684,
      "All": 6685,
      "true": 6686,
      "side": 6687,
      "ese": 6688,
      "ized": 6689,
      "high": 6690,
      "Mar": 6691,
      "second": 6692,
      "images": 6693,
      "language": 6694,
      "Jo": 6695,
      "cu": 6696,
      "number": 6697,
      "oub": 6698,
      "given": 6699,
      "allow": 6700,
      "por": 6701,
      "ures": 6702,
      "color": 6703,
      "having": 6704,
      "Image": 6705,
      "24": 6706,
      "WW": 6707,
      "hard": 6708,
      "quite": 6709,
      "direct": 6710,
      "na": 6711,
      "polit": 6712,
      "chool": 6713,
      "inc": 6714,
      "RA": 6715,
      "possible": 6716,
      "always": 6717,
      "users": 6718,
      "lim": 6719,
      "Fe": 6720,
      "ton": 6721,
      "sk": 6722,
      "evidence": 6723,
      "air": 6724,
      "haha": 6725,
      "words": 6726,
      "viol": 6727,
      "yet": 6728,
      "invol": 6729,
      "ext": 6730,
      "Any": 6731,
      "ters": 6732,
      "sci": 6733,
      "Po": 6734,
      "May": 6735,
      "ute": 6736,
      "bre": 6737,
      "makes": 6738,
      "notice": 6739,
      "obvious": 6740,
      "net": 6741,
      "ال": 6742,
      "left": 6743,
      "jor": 6744,
      "encyclopedia": 6745,
      "den": 6746,
      "idea": 6747,
      "clearly": 6748,
      "upload": 6749,
      "whether": 6750,
      "qual": 6751,
      "ID": 6752,
      "website": 6753,
      "det": 6754,
      "offic": 6755,
      "ball": 6756,
      "known": 6757,
      "idered": 6758,
      "course": 6759,
      "considered": 6760,
      "class": 6761,
      "del": 6762,
      "pop": 6763,
      "AA": 6764,
      "based": 6765,
      "ities": 6766,
      "cial": 6767,
      "Ed": 6768,
      "000": 6769,
      "har": 6770,
      "lished": 6771,
      "tru": 6772,
      "pho": 6773,
      "until": 6774,
      "wish": 6775,
      "changes": 6776,
      "means": 6777,
      "stud": 6778,
      "HO": 6779,
      "CT": 6780,
      "22": 6781,
      "iend": 6782,
      "listed": 6783,
      "utral": 6784,
      "particular": 6785,
      "dr": 6786,
      "mentioned": 6787,
      "bu": 6788,
      "each": 6789,
      "wee": 6790,
      "sl": 6791,
      "came": 6792,
      "See": 6793,
      "agr": 6794,
      "Ger": 6795,
      "eas": 6796,
      "friend": 6797,
      "cle": 6798,
      "ruct": 6799,
      "exp": 6800,
      "stem": 6801,
      "instead": 6802,
      "Man": 6803,
      "disput": 6804,
      "contributions": 6805,
      "son": 6806,
      "group": 6807,
      "position": 6808,
      "guidelines": 6809,
      "author": 6810,
      "usion": 6811,
      "cas": 6812,
      "yes": 6813,
      "ush": 6814,
      "criteria": 6815,
      "related": 6816,
      "var": 6817,
      "ature": 6818,
      "eng": 6819,
      "fully": 6820,
      "further": 6821,
      "whole": 6822,
      "tempt": 6823,
      ".\"": 6824,
      "Af": 6825,
      "bers": 6826,
      "happen": 6827,
      "sever": 6828,
      "topic": 6829,
      "Jew": 6830,
      "bro": 6831,
      "cannot": 6832,
      "Che": 6833,
      "fag": 6834,
      "seen": 6835,
      "pet": 6836,
      "ones": 6837,
      "SUCK": 6838,
      "resul": 6839,
      "prote": 6840,
      "Some": 6841,
      "bas": 6842,
      "HAHA": 6843,
      "detail": 6844,
      "several": 6845,
      "cap": 6846,
      "ised": 6847,
      "background": 6848,
      "bitch": 6849,
      "fix": 6850,
      "media": 6851,
      "stat": 6852,
      "include": 6853,
      "American": 6854,
      "fun": 6855,
      "anti": 6856,
      "OF": 6857,
      "proper": 6858,
      "pa": 6859,
      "lack": 6860,
      "AM": 6861,
      "Ind": 6862,
      "Pe": 6863,
      "|-": 6864,
      "car": 6865,
      ";=": 6866,
      "Artic": 6867,
      "statement": 6868,
      "sed": 6869,
      "ness": 6870,
      "ted": 6871,
      "entire": 6872,
      "categ": 6873,
      "sha": 6874,
      "23": 6875,
      "Lo": 6876,
      "men": 6877,
      "nig": 6878,
      "ny": 6879,
      "template": 6880,
      "pup": 6881,
      "AG": 6882,
      "uring": 6883,
      "Well": 6884,
      "ped": 6885,
      "pur": 6886,
      "hum": 6887,
      "pg": 6888,
      "sentence": 6889,
      "Christ": 6890,
      "general": 6891,
      "preci": 6892,
      "project": 6893,
      "organ": 6894,
      "times": 6895,
      "loc": 6896,
      "issues": 6897,
      "following": 6898,
      "photo": 6899,
      "At": 6900,
      "ives": 6901,
      "create": 6902,
      "Ex": 6903,
      "three": 6904,
      "Tr": 6905,
      "thanks": 6906,
      "major": 6907,
      "iot": 6908,
      "vel": 6909,
      "short": 6910,
      "sock": 6911,
      "Ag": 6912,
      "administr": 6913,
      "ilar": 6914,
      "Per": 6915,
      "law": 6916,
      "NOT": 6917,
      "TO": 6918,
      "necess": 6919,
      ".)": 6920,
      "fer": 6921,
      "ration": 6922,
      "appreci": 6923,
      "arent": 6924,
      "national": 6925,
      "ina": 6926,
      "common": 6927,
      "nomin": 6928,
      "mus": 6929,
      "adv": 6930,
      "once": 6931,
      "Don": 6932,
      "Sp": 6933,
      "fort": 6934,
      "acy": 6935,
      "ended": 6936,
      "UNT": 6937,
      "speak": 6938,
      "open": 6939,
      "Pr": 6940,
      "sho": 6941,
      "ham": 6942,
      "̈̈": 6943,
      "Brit": 6944,
      "attempt": 6945,
      "urn": 6946,
      "including": 6947,
      "bot": 6948,
      "II": 6949,
      "px": 6950,
      "Co": 6951,
      "Reg": 6952,
      "100": 6953,
      "warning": 6954,
      "histor": 6955,
      "roll": 6956,
      "ivers": 6957,
      "kill": 6958,
      "hi": 6959,
      "accur": 6960,
      "names": 6961,
      "pass": 6962,
      "four": 6963,
      "changed": 6964,
      "CUNT": 6965,
      "ax": 6966,
      "When": 6967,
      "LI": 6968,
      "cording": 6969,
      "placed": 6970,
      "}}": 6971,
      "Le": 6972,
      "neutral": 6973,
      "bio": 6974,
      "sc": 6975,
      "days": 6976,
      "Now": 6977,
      "band": 6978,
      "NO": 6979,
      "hate": 6980,
      "ye": 6981,
      "school": 6982,
      "25": 6983,
      "facts": 6984,
      "cially": 6985,
      "system": 6986,
      "full": 6987,
      "charac": 6988,
      "agraph": 6989,
      "away": 6990,
      "ark": 6991,
      "ARE": 6992,
      "getting": 6993,
      "run": 6994,
      "uation": 6995,
      "exact": 6996,
      "jpg": 6997,
      "mary": 6998,
      "Here": 6999,
      "uro": 7000,
      "ony": 7001,
      "ago": 7002,
      "news": 7003,
      "mist": 7004,
      "dick": 7005,
      "ived": 7006,
      "199": 7007,
      "included": 7008,
      "action": 7009,
      "serious": 7010,
      "indic": 7011,
      "EDI": 7012,
      "paragraph": 7013,
      "provide": 7014,
      "myself": 7015,
      "pend": 7016,
      "rules": 7017,
      "ories": 7018,
      "compl": 7019,
      "align": 7020,
      "os": 7021,
      "worth": 7022,
      "Nor": 7023,
      "respect": 7024,
      "watch": 7025,
      "order": 7026,
      "Yes": 7027,
      "rac": 7028,
      "mark": 7029,
      "ides": 7030,
      "appear": 7031,
      "sourced": 7032,
      "ward": 7033,
      "ount": 7034,
      "Qu": 7035,
      "ler": 7036,
      "GAY": 7037,
      "rote": 7038,
      "soci": 7039,
      "serv": 7040,
      "ird": 7041,
      "iped": 7042,
      "answer": 7043,
      "GO": 7044,
      "{{": 7045,
      "auto": 7046,
      "BL": 7047,
      "outh": 7048,
      "def": 7049,
      "2005": 7050,
      "rup": 7051,
      "iving": 7052,
      "sorry": 7053,
      "process": 7054,
      "apo": 7055,
      "gin": 7056,
      "love": 7057,
      "picture": 7058,
      "AD": 7059,
      "WIK": 7060,
      "writing": 7061,
      "child": 7062,
      "ime": 7063,
      "bar": 7064,
      "large": 7065,
      "!!!!!!!!!!!!!!!!!!!!!!!!!!!!!!!!": 7066,
      "wrote": 7067,
      "terr": 7068,
      "diff": 7069,
      "ord": 7070,
      "VER": 7071,
      "started": 7072,
      "stuff": 7073,
      "MY": 7074,
      "notic": 7075,
      "summary": 7076,
      "official": 7077,
      "TE": 7078,
      "gram": 7079,
      "similar": 7080,
      "prof": 7081,
      "que": 7082,
      "looking": 7083,
      "ane": 7084,
      "wise": 7085,
      "uss": 7086,
      "DIE": 7087,
      "penis": 7088,
      "past": 7089,
      "improve": 7090,
      "Ne": 7091,
      "itself": 7092,
      "however": 7093,
      "ctions": 7094,
      "ross": 7095,
      "object": 7096,
      "later": 7097,
      "refer": 7098,
      "claims": 7099,
      "quot": 7100,
      "stay": 7101,
      "hn": 7102,
      "light": 7103,
      "accus": 7104,
      "deal": 7105,
      "next": 7106,
      "Project": 7107,
      "pretty": 7108,
      "meet": 7109,
      "doub": 7110,
      "espe": 7111,
      "month": 7112,
      "len": 7113,
      "gover": 7114,
      "interested": 7115,
      "30": 7116,
      "umb": 7117,
      "sort": 7118,
      "appears": 7119,
      "ization": 7120,
      "idd": 7121,
      "taken": 7122,
      "previous": 7123,
      "Ser": 7124,
      "AB": 7125,
      "velo": 7126,
      "aaaaaaaa": 7127,
      "cover": 7128,
      "single": 7129,
      "oun": 7130,
      "ames": 7131,
      "sound": 7132,
      "gh": 7133,
      "cult": 7134,
      "dist": 7135,
      "UP": 7136,
      "One": 7137,
      "maybe": 7138,
      "mit": 7139,
      "respond": 7140,
      "country": 7141,
      "ledge": 7142,
      "oid": 7143,
      "Ir": 7144,
      "Gr": 7145,
      "ont": 7146,
      "sites": 7147,
      "dom": 7148,
      "HE": 7149,
      "Me": 7150,
      "gn": 7151,
      "ii": 7152,
      "wanted": 7153,
      "relig": 7154,
      "bal": 7155,
      "iber": 7156,
      "50": 7157,
      "CC": 7158,
      "likely": 7159,
      "regarding": 7160,
      "record": 7161,
      "War": 7162,
      "within": 7163,
      "ield": 7164,
      "small": 7165,
      "hy": 7166,
      "nment": 7167,
      "Te": 7168,
      "currently": 7169,
      "sch": 7170,
      "oman": 7171,
      "Pol": 7172,
      "tot": 7173,
      "ivil": 7174,
      "game": 7175,
      "ient": 7176,
      "wa": 7177,
      "ital": 7178,
      "reading": 7179,
      "Oh": 7180,
      "states": 7181,
      "ons": 7182,
      "UR": 7183,
      "ising": 7184,
      "addition": 7185,
      "removing": 7186,
      "fail": 7187,
      "cred": 7188,
      "mber": 7189,
      "IC": 7190,
      "signific": 7191,
      "faith": 7192,
      "cc": 7193,
      "met": 7194,
      "ators": 7195,
      "published": 7196,
      "hon": 7197,
      "everyone": 7198,
      "guy": 7199,
      "involved": 7200,
      "fal": 7201,
      "hold": 7202,
      "completely": 7203,
      "ification": 7204,
      "especially": 7205,
      "fig": 7206,
      "SHIT": 7207,
      "____": 7208,
      "iment": 7209,
      "redirect": 7210,
      ":#": 7211,
      "ange": 7212,
      "deb": 7213,
      "vent": 7214,
      "Hey": 7215,
      "books": 7216,
      "critic": 7217,
      "uc": 7218,
      "intro": 7219,
      "dont": 7220,
      "looks": 7221,
      "argument": 7222,
      "perhaps": 7223,
      "uses": 7224,
      "represent": 7225,
      "quote": 7226,
      "wasn": 7227,
      "ants": 7228,
      "mm": 7229,
      "uture": 7230,
      "certainly": 7231,
      "Sorry": 7232,
      "entry": 7233,
      "HH": 7234,
      "andbox": 7235,
      "ured": 7236,
      "idiot": 7237,
      "useful": 7238,
      "ga": 7239,
      "ling": 7240,
      "guess": 7241,
      "ان": 7242,
      "Are": 7243,
      "COCK": 7244,
      ";\"\"": 7245,
      "itions": 7246,
      "comes": 7247,
      "mother": 7248,
      "descrip": 7249,
      "iction": 7250,
      "ared": 7251,
      "community": 7252,
      "during": 7253,
      "beha": 7254,
      "develo": 7255,
      "notability": 7256,
      "ging": 7257,
      "pat": 7258,
      "working": 7259,
      "atever": 7260,
      "bum": 7261,
      "wonder": 7262,
      "WIKIP": 7263,
      "ision": 7264,
      "IG": 7265,
      "''''''": 7266,
      "policies": 7267,
      "EE": 7268,
      "lock": 7269,
      "power": 7270,
      "RO": 7271,
      "talking": 7272,
      "repe": 7273,
      "POOP": 7274,
      "protect": 7275,
      "VE": 7276,
      "Wor": 7277,
      "cited": 7278,
      "===": 7279,
      "meaning": 7280,
      "2006": 7281,
      "disagree": 7282,
      "describ": 7283,
      "vo": 7284,
      ":::::": 7285,
      "explan": 7286,
      "ulation": 7287,
      "Good": 7288,
      "Since": 7289,
      "John": 7290,
      "pie": 7291,
      "li": 7292,
      "gy": 7293,
      "hal": 7294,
      "necessary": 7295,
      "due": 7296,
      "press": 7297,
      "ZZZZ": 7298,
      "concern": 7299,
      "edited": 7300,
      "By": 7301,
      "below": 7302,
      "behavi": 7303,
      "dra": 7304,
      "Bar": 7305,
      "attacks": 7306,
      "uy": 7307,
      "coming": 7308,
      "ideo": 7309,
      "ouse": 7310,
      "nice": 7311,
      "often": 7312,
      "week": 7313,
      "aren": 7314,
      "false": 7315,
      "bus": 7316,
      "pot": 7317,
      "WIKIPEDI": 7318,
      "iple": 7319,
      "selves": 7320,
      "uu": 7321,
      "rid": 7322,
      "Again": 7323,
      "Let": 7324,
      "points": 7325,
      "mission": 7326,
      "asked": 7327,
      "YOUR": 7328,
      "She": 7329,
      "border": 7330,
      "noticed": 7331,
      "political": 7332,
      "ired": 7333,
      "black": 7334,
      "moved": 7335,
      "ural": 7336,
      "ata": 7337,
      "future": 7338,
      "gl": 7339,
      "took": 7340,
      "2010": 7341,
      "music": 7342,
      "aware": 7343,
      "UK": 7344,
      "uk": 7345,
      "needed": 7346,
      "reed": 7347,
      "effect": 7348,
      "graphy": 7349,
      "bb": 7350,
      "ann": 7351,
      "Wikiped": 7352,
      "Euro": 7353,
      "tech": 7354,
      "BE": 7355,
      "everything": 7356,
      "win": 7357,
      "today": 7358,
      "strong": 7359,
      "ilit": 7360,
      "wid": 7361,
      "medi": 7362,
      "reasons": 7363,
      "truth": 7364,
      "hour": 7365,
      "along": 7366,
      "views": 7367,
      "une": 7368,
      "British": 7369,
      "UUUU": 7370,
      "ats": 7371,
      "ury": 7372,
      "film": 7373,
      "rael": 7374,
      "hom": 7375,
      "cing": 7376,
      "Wel": 7377,
      "become": 7378,
      "God": 7379,
      "docu": 7380,
      "ama": 7381,
      "learn": 7382,
      "United": 7383,
      "prim": 7384,
      "context": 7385,
      "nonsense": 7386,
      "ively": 7387,
      "dam": 7388,
      "vol": 7389,
      "List": 7390,
      "joy": 7391,
      "ety": 7392,
      "cut": 7393,
      "THER": 7394,
      "definition": 7395,
      "width": 7396,
      "CE": 7397,
      "dro": 7398,
      "cogn": 7399,
      "accurate": 7400,
      "posted": 7401,
      "terms": 7402,
      "song": 7403,
      "99": 7404,
      "vandalize": 7405,
      "exactly": 7406,
      "saw": 7407,
      "star": 7408,
      "ivid": 7409,
      "Pl": 7410,
      "ring": 7411,
      "rely": 7412,
      "except": 7413,
      "KE": 7414,
      "2007": 7415,
      "story": 7416,
      "ently": 7417,
      "confir": 7418,
      "scient": 7419,
      "pract": 7420,
      "experi": 7421,
      "contain": 7422,
      "separ": 7423,
      "2008": 7424,
      "Dis": 7425,
      "response": 7426,
      "sandbox": 7427,
      "iddle": 7428,
      "GE": 7429,
      "iversity": 7430,
      "soon": 7431,
      "white": 7432,
      "field": 7433,
      "face": 7434,
      "NPOV": 7435,
      "IM": 7436,
      "almost": 7437,
      "omen": 7438,
      "jud": 7439,
      "oper": 7440,
      "ially": 7441,
      "LY": 7442,
      "||": 7443,
      "remain": 7444,
      "remember": 7445,
      "WIKIPEDIA": 7446,
      "legal": 7447,
      "unless": 7448,
      "198": 7449,
      "ping": 7450,
      "RECT": 7451,
      "WikiProject": 7452,
      "Ge": 7453,
      "close": 7454,
      "board": 7455,
      "ley": 7456,
      "kk": 7457,
      "urch": 7458,
      "email": 7459,
      "gar": 7460,
      "haven": 7461,
      "contact": 7462,
      "appreciate": 7463,
      "lling": 7464,
      "ibly": 7465,
      "hell": 7466,
      "tered": 7467,
      "problems": 7468,
      "Hel": 7469,
      "subst": 7470,
      "Cl": 7471,
      "cock": 7472,
      "{|": 7473,
      "Spe": 7474,
      "whatever": 7475,
      "company": 7476,
      "oooo": 7477,
      "happy": 7478,
      "REDI": 7479,
      "stated": 7480,
      "government": 7481,
      "iness": 7482,
      "fine": 7483,
      "ele": 7484,
      "21": 7485,
      "valid": 7486,
      "****": 7487,
      "human": 7488,
      "shows": 7489,
      "EW": 7490,
      "knowledge": 7491,
      "type": 7492,
      "tt": 7493,
      "disrup": 7494,
      "key": 7495,
      "dispute": 7496,
      "although": 7497,
      "character": 7498,
      "lam": 7499,
      "plic": 7500,
      "SC": 7501,
      "works": 7502,
      "cha": 7503,
      "ibs": 7504,
      "ternal": 7505,
      "Who": 7506,
      "civil": 7507,
      "da": 7508,
      "peri": 7509,
      "DO": 7510,
      "avoid": 7511,
      "actual": 7512,
      "assu": 7513,
      "tom": 7514,
      "Fo": 7515,
      "tried": 7516,
      "40": 7517,
      "status": 7518,
      "ances": 7519,
      "aper": 7520,
      "level": 7521,
      "Ab": 7522,
      "rule": 7523,
      "DICK": 7524,
      "job": 7525,
      "wards": 7526,
      "df": 7527,
      "plan": 7528,
      "tra": 7529,
      "cell": 7530,
      "clar": 7531,
      "mult": 7532,
      "vertical": 7533,
      "sucks": 7534,
      "ending": 7535,
      "Cheers": 7536,
      "space": 7537,
      "map": 7538,
      "continu": 7539,
      "yyyy": 7540,
      "username": 7541,
      "nic": 7542,
      "Europe": 7543,
      "five": 7544,
      "taking": 7545,
      "REDIRECT": 7546,
      "SS": 7547,
      "mal": 7548,
      "Israel": 7549,
      "eth": 7550,
      "threat": 7551,
      "iss": 7552,
      "according": 7553,
      "Ju": 7554,
      "edic": 7555,
      "Hist": 7556,
      "live": 7557,
      "individ": 7558,
      "foot": 7559,
      "provided": 7560,
      "LA": 7561,
      "reply": 7562,
      "gether": 7563,
      "obviously": 7564,
      "itch": 7565,
      "emp": 7566,
      "Get": 7567,
      "hu": 7568,
      "padding": 7569,
      "German": 7570,
      "Pre": 7571,
      "uploaded": 7572,
      "moron": 7573,
      "PE": 7574,
      "actions": 7575,
      "explanation": 7576,
      "death": 7577,
      "description": 7578,
      "area": 7579,
      "Jan": 7580,
      "expect": 7581,
      "Col": 7582,
      "ric": 7583,
      "htm": 7584,
      "signed": 7585,
      "nal": 7586,
      "Sc": 7587,
      "together": 7588,
      "ster": 7589,
      "Dr": 7590,
      "]]": 7591,
      "wo": 7592,
      "????": 7593,
      "Ac": 7594,
      "went": 7595,
      "generally": 7596,
      "recently": 7597,
      "di": 7598,
      "mill": 7599,
      "experiment": 7600,
      "Fir": 7601,
      "27": 7602,
      "====": 7603,
      "BIT": 7604,
      "transl": 7605,
      "citation": 7606,
      "Mr": 7607,
      "introdu": 7608,
      "Ste": 7609,
      "cam": 7610,
      "som": 7611,
      "FUCKING": 7612,
      "hor": 7613,
      "ai": 7614,
      "33": 7615,
      "individual": 7616,
      "themselves": 7617,
      "Tur": 7618,
      "imin": 7619,
      "ambig": 7620,
      "1111": 7621,
      "ener": 7622,
      "mom": 7623,
      "decide": 7624,
      "aged": 7625,
      "ica": 7626,
      "Cr": 7627,
      "solid": 7628,
      "cite": 7629,
      "zer": 7630,
      "alone": 7631,
      "arr": 7632,
      "category": 7633,
      "recogn": 7634,
      "Mus": 7635,
      "inser": 7636,
      "enjoy": 7637,
      "party": 7638,
      "poop": 7639,
      "event": 7640,
      "result": 7641,
      "logical": 7642,
      "nnnn": 7643,
      "Russ": 7644,
      "king": 7645,
      "deleting": 7646,
      "conflic": 7647,
      "helpful": 7648,
      "THIS": 7649,
      "reverting": 7650,
      "promot": 7651,
      "RR": 7652,
      "ensive": 7653,
      "minor": 7654,
      "KKKK": 7655,
      "avail": 7656,
      "belong": 7657,
      "Will": 7658,
      "ta": 7659,
      "resol": 7660,
      "Aust": 7661,
      "significant": 7662,
      "automat": 7663,
      "standard": 7664,
      "Gu": 7665,
      "file": 7666,
      "En": 7667,
      "rece": 7668,
      "simple": 7669,
      "tags": 7670,
      "estab": 7671,
      "told": 7672,
      "\"\"?": 7673,
      "Welcome": 7674,
      "MA": 7675,
      "First": 7676,
      "Mon": 7677,
      "asser": 7678,
      "tries": 7679,
      "istic": 7680,
      "Ph": 7681,
      "equ": 7682,
      "wouldn": 7683,
      ",\"\"": 7684,
      "SO": 7685,
      "cir": 7686,
      "fan": 7687,
      "moder": 7688,
      "IL": 7689,
      "ben": 7690,
      "TR": 7691,
      "mi": 7692,
      "various": 7693,
      "Gree": 7694,
      "iar": 7695,
      "2009": 7696,
      "tive": 7697,
      "xx": 7698,
      "apan": 7699,
      "LOL": 7700,
      "unch": 7701,
      "break": 7702,
      "clean": 7703,
      "anyway": 7704,
      "ined": 7705,
      "guys": 7706,
      "Ko": 7707,
      "anal": 7708,
      "ming": 7709,
      "sus": 7710,
      "quick": 7711,
      "allowed": 7712,
      "Did": 7713,
      "mass": 7714,
      "interesting": 7715,
      "nigger": 7716,
      "Christian": 7717,
      "scr": 7718,
      "ya": 7719,
      "Rep": 7720,
      "attention": 7721,
      "banned": 7722,
      "itted": 7723,
      "ences": 7724,
      "definite": 7725,
      "heard": 7726,
      "ican": 7727,
      "OOOO": 7728,
      "Maybe": 7729,
      "longer": 7730,
      "roy": 7731,
      "imate": 7732,
      "particip": 7733,
      "product": 7734,
      "sections": 7735,
      "lat": 7736,
      "citations": 7737,
      "flu": 7738,
      "conv": 7739,
      "Act": 7740,
      "ison": 7741,
      "ble": 7742,
      "DY": 7743,
      "~~~~": 7744,
      "ION": 7745,
      "Perhaps": 7746,
      "mag": 7747,
      "happened": 7748,
      "writ": 7749,
      "criticism": 7750,
      "itive": 7751,
      "28": 7752,
      "WWWW": 7753,
      "team": 7754,
      "gs": 7755,
      "table": 7756,
      "........": 7757,
      "album": 7758,
      "members": 7759,
      "ery": 7760,
      "eeee": 7761,
      "Of": 7762,
      "biased": 7763,
      "26": 7764,
      "assho": 7765,
      "reme": 7766,
      "fav": 7767,
      "hhhh": 7768,
      "construct": 7769,
      "consist": 7770,
      "goes": 7771,
      "family": 7772,
      "UM": 7773,
      "ream": 7774,
      "theory": 7775,
      "conne": 7776,
      "Res": 7777,
      "half": 7778,
      "ada": 7779,
      "These": 7780,
      "ffic": 7781,
      "available": 7782,
      "typ": 7783,
      "tagged": 7784,
      "Article": 7785,
      "SP": 7786,
      "Aug": 7787,
      "Sup": 7788,
      "izing": 7789,
      "administrator": 7790,
      "bring": 7791,
      "Help": 7792,
      "supposed": 7793,
      "piece": 7794,
      "phr": 7795,
      "irl": 7796,
      "orial": 7797,
      "ief": 7798,
      "himself": 7799,
      "worked": 7800,
      "doubt": 7801,
      "Ke": 7802,
      "With": 7803,
      "Even": 7804,
      "zzzz": 7805,
      "document": 7806,
      "creating": 7807,
      "While": 7808,
      "OK": 7809,
      "Car": 7810,
      "troll": 7811,
      "ond": 7812,
      "admins": 7813,
      ".,": 7814,
      "bur": 7815,
      "gets": 7816,
      "::::::::": 7817,
      "home": 7818,
      "197": 7819,
      "arily": 7820,
      "feat": 7821,
      "ste": 7822,
      "Ok": 7823,
      "Then": 7824,
      "World": 7825,
      "solute": 7826,
      "Categ": 7827,
      "city": 7828,
      "born": 7829,
      "mas": 7830,
      "automatically": 7831,
      "acceptable": 7832,
      "bias": 7833,
      "July": 7834,
      "faggot": 7835,
      "igno": 7836,
      "BITCH": 7837,
      "usually": 7838,
      "therefore": 7839,
      "boy": 7840,
      "States": 7841,
      "quality": 7842,
      "29": 7843,
      "insul": 7844,
      "ERS": 7845,
      "wide": 7846,
      "Admin": 7847,
      "honest": 7848,
      "contribs": 7849,
      "ali": 7850,
      "ILL": 7851,
      "Japan": 7852,
      "Where": 7853,
      "near": 7854,
      "apolog": 7855,
      "nder": 7856,
      "NE": 7857,
      "Articles": 7858,
      "puppet": 7859,
      "ses": 7860,
      "period": 7861,
      "living": 7862,
      "FAGG": 7863,
      "click": 7864,
      "die": 7865,
      "fac": 7866,
      "tho": 7867,
      "verif": 7868,
      "leng": 7869,
      "Sep": 7870,
      "ublic": 7871,
      "cunt": 7872,
      "ples": 7873,
      "reach": 7874,
      "proposed": 7875,
      "mail": 7876,
      "Look": 7877,
      "gle": 7878,
      "IST": 7879,
      "aving": 7880,
      "poor": 7881,
      "BO": 7882,
      "FD": 7883,
      "begin": 7884,
      "concl": 7885,
      "contributing": 7886,
      "statements": 7887,
      "complain": 7888,
      "incorrect": 7889,
      "vote": 7890,
      "opinions": 7891,
      "concept": 7892,
      ");": 7893,
      "Apr": 7894,
      "elect": 7895,
      "unk": 7896,
      "suc": 7897,
      "aj": 7898,
      "tur": 7899,
      "middle": 7900,
      "mp": 7901,
      "hours": 7902,
      "\"\"|": 7903,
      "ene": 7904,
      "ASS": 7905,
      "Pers": 7906,
      "RS": 7907,
      "among": 7908,
      "debate": 7909,
      "vot": 7910,
      "tild": 7911,
      "schol": 7912,
      "third": 7913,
      "hind": 7914,
      "force": 7915,
      "series": 7916,
      "80": 7917,
      "independ": 7918,
      "Ob": 7919,
      "night": 7920,
      "video": 7921,
      "separate": 7922,
      "comput": 7923,
      "fight": 7924,
      "indeed": 7925,
      "months": 7926,
      "build": 7927,
      "tildes": 7928,
      "couple": 7929,
      "̈̈̈̈": 7930,
      "ignor": 7931,
      "Because": 7932,
      "Page": 7933,
      "uyuy": 7934,
      "apparent": 7935,
      "Sy": 7936,
      "accepted": 7937,
      "details": 7938,
      "WT": 7939,
      "calling": 7940,
      "epis": 7941,
      "tyty": 7942,
      "ying": 7943,
      "2012": 7944,
      "design": 7945,
      "Am": 7946,
      "vir": 7947,
      "step": 7948,
      "otherwise": 7949,
      "liter": 7950,
      "data": 7951,
      "DE": 7952,
      "interpret": 7953,
      "shouldn": 7954,
      "Ye": 7955,
      "Does": 7956,
      "Request": 7957,
      "Jewish": 7958,
      "absolute": 7959,
      "error": 7960,
      "King": 7961,
      "bull": 7962,
      "thus": 7963,
      "rights": 7964,
      "60": 7965,
      "ron": 7966,
      "Afr": 7967,
      "indicate": 7968,
      "science": 7969,
      "ering": 7970,
      "crap": 7971,
      "atic": 7972,
      "oney": 7973,
      "multiple": 7974,
      "ney": 7975,
      "Edit": 7976,
      "fortun": 7977,
      "puppe": 7978,
      "advert": 7979,
      "Mac": 7980,
      "icul": 7981,
      "FAGGOT": 7982,
      "Cor": 7983,
      "scre": 7984,
      "gre": 7985,
      "somet": 7986,
      "ni": 7987,
      "rad": 7988,
      "ids": 7989,
      "vision": 7990,
      "access": 7991,
      "abor": 7992,
      "understanding": 7993,
      "adem": 7994,
      "wwww": 7995,
      "ices": 7996,
      "Bro": 7997,
      "[[": 7998,
      "rench": 7999,
      "Bl": 8000,
      "After": 8001,
      "Jews": 8002,
      "Have": 8003,
      "2011": 8004,
      "pppp": 8005,
      "violation": 8006,
      "Other": 8007,
      "program": 8008,
      "prove": 8009,
      "meant": 8010,
      "directly": 8011,
      "August": 8012,
      "pus": 8013,
      "prefer": 8014,
      "situation": 8015,
      "proof": 8016,
      "contest": 8017,
      "difference": 8018,
      "purpose": 8019,
      "JEW": 8020,
      "sn": 8021,
      "prop": 8022,
      "Sty": 8023,
      "BS": 8024,
      "Take": 8025,
      "ilitary": 8026,
      "LD": 8027,
      "Goo": 8028,
      "deser": 8029,
      "Naz": 8030,
      "push": 8031,
      "ws": 8032,
      "described": 8033,
      "linked": 8034,
      "His": 8035,
      "uary": 8036,
      "activ": 8037,
      "ibility": 8038,
      "DON": 8039,
      "Note": 8040,
      "Add": 8041,
      "TV": 8042,
      "alth": 8043,
      "icult": 8044,
      "countries": 8045,
      "expand": 8046,
      "jour": 8047,
      "hear": 8048,
      "upon": 8049,
      "assume": 8050,
      "propos": 8051,
      "cases": 8052,
      "Dav": 8053,
      "explaining": 8054,
      "size": 8055,
      "neg": 8056,
      "spam": 8057,
      "alleg": 8058,
      "definitely": 8059,
      "???": 8060,
      "inclusion": 8061,
      "historical": 8062,
      "ential": 8063,
      "focus": 8064,
      "History": 8065,
      "Rf": 8066,
      "perfect": 8067,
      "conflict": 8068,
      "tar": 8069,
      "terror": 8070,
      "cal": 8071,
      "rationale": 8072,
      "utes": 8073,
      "early": 8074,
      "dead": 8075,
      "Feb": 8076,
      "pill": 8077,
      "oke": 8078,
      "creation": 8079,
      "primary": 8080,
      "lier": 8081,
      "termin": 8082,
      "looked": 8083,
      "asshole": 8084,
      "Could": 8085,
      "ko": 8086,
      "plied": 8087,
      "famil": 8088,
      "balls": 8089,
      "develop": 8090,
      "fall": 8091,
      "cast": 8092,
      "Islam": 8093,
      "dd": 8094,
      "acc": 8095,
      "reader": 8096,
      "ceding": 8097,
      "March": 8098,
      "Category": 8099,
      "html": 8100,
      "educ": 8101,
      "decl": 8102,
      "illy": 8103,
      "uni": 8104,
      "University": 8105,
      "asking": 8106,
      "2004": 8107,
      "invest": 8108,
      "Block": 8109,
      "control": 8110,
      "Style": 8111,
      "aud": 8112,
      "BUT": 8113,
      "behavior": 8114,
      "ister": 8115,
      "ibe": 8116,
      "amount": 8117,
      "ustr": 8118,
      "release": 8119,
      "special": 8120,
      "ana": 8121,
      "thinking": 8122,
      "anda": 8123,
      "attle": 8124,
      "WH": 8125,
      "existing": 8126,
      "unsigned": 8127,
      "mine": 8128,
      "Penis": 8129,
      "stick": 8130,
      "Arab": 8131,
      "UST": 8132,
      "produce": 8133,
      "Google": 8134,
      "Sch": 8135,
      "India": 8136,
      "Austral": 8137,
      "online": 8138,
      "require": 8139,
      "Har": 8140,
      "sat": 8141,
      "external": 8142,
      "Vandal": 8143,
      "scientific": 8144,
      "Sim": 8145,
      "ague": 8146,
      "iles": 8147,
      "PR": 8148,
      "45": 8149,
      "Fin": 8150,
      "ze": 8151,
      "ession": 8152,
      "named": 8153,
      "specifically": 8154,
      "Mic": 8155,
      "FOR": 8156,
      "priv": 8157,
      "infobox": 8158,
      "ork": 8159,
      "coll": 8160,
      "ds": 8161,
      "social": 8162,
      "changing": 8163,
      "conom": 8164,
      "repeated": 8165,
      "fill": 8166,
      "phys": 8167,
      "modern": 8168,
      "National": 8169,
      "extreme": 8170,
      "Manual": 8171,
      "NA": 8172,
      "controvers": 8173,
      "90": 8174,
      "popular": 8175,
      "June": 8176,
      "messages": 8177,
      "lin": 8178,
      "ges": 8179,
      "HATE": 8180,
      "sequ": 8181,
      "discussed": 8182,
      "culture": 8183,
      "seriously": 8184,
      "Tem": 8185,
      "?!": 8186,
      "giving": 8187,
      "girl": 8188,
      "ken": 8189,
      "utorial": 8190,
      "treat": 8191,
      "January": 8192,
      "vered": 8193,
      "women": 8194,
      "ode": 8195,
      "appy": 8196,
      "South": 8197,
      "mad": 8198,
      "mot": 8199,
      "Mc": 8200,
      "Sm": 8201,
      "opy": 8202,
      "55": 8203,
      "wing": 8204,
      "readers": 8205,
      "leading": 8206,
      "nat": 8207,
      "none": 8208,
      "From": 8209,
      "outside": 8210,
      "sad": 8211,
      "FAG": 8212,
      "decided": 8213,
      "YY": 8214,
      "-)": 8215,
      "Jes": 8216,
      "arguments": 8217,
      "ional": 8218,
      "IR": 8219,
      "business": 8220,
      "April": 8221,
      "numbers": 8222,
      "mun": 8223,
      "van": 8224,
      "gan": 8225,
      "particularly": 8226,
      "pick": 8227,
      "warring": 8228,
      "children": 8229,
      "relation": 8230,
      "figure": 8231,
      "sto": 8232,
      "sexual": 8233,
      "million": 8234,
      "America": 8235,
      "fat": 8236,
      "irrelevant": 8237,
      "reported": 8238,
      "unblock": 8239,
      "resto": 8240,
      "dated": 8241,
      "lying": 8242,
      "(~~~~": 8243,
      "Would": 8244,
      "active": 8245,
      "OM": 8246,
      "PS": 8247,
      "::::::": 8248,
      "Quest": 8249,
      "Par": 8250,
      "gave": 8251,
      "hes": 8252,
      "verse": 8253,
      "TW": 8254,
      "augh": 8255,
      "entirely": 8256,
      "racist": 8257,
      "Rev": 8258,
      "More": 8259,
      "El": 8260,
      "reflect": 8261,
      "yl": 8262,
      "CAN": 8263,
      "associ": 8264,
      "iding": 8265,
      "trad": 8266,
      "earlier": 8267,
      "referenced": 8268,
      "ilo": 8269,
      "'.": 8270,
      "NIGGERS": 8271,
      "File": 8272,
      "covered": 8273,
      "former": 8274,
      "Best": 8275,
      "|}": 8276,
      "across": 8277,
      "gives": 8278,
      "moment": 8279,
      "constit": 8280,
      "Ma": 8281,
      "lik": 8282,
      "behind": 8283,
      "contribute": 8284,
      "friends": 8285,
      "reasonable": 8286,
      "Stop": 8287,
      "disruptive": 8288,
      "turn": 8289,
      "pillars": 8290,
      "WAN": 8291,
      "erous": 8292,
      "Feel": 8293,
      "sen": 8294,
      "putting": 8295,
      "CA": 8296,
      "personally": 8297,
      "desp": 8298,
      "tember": 8299,
      "wait": 8300,
      "ets": 8301,
      "Roman": 8302,
      "dumb": 8303,
      "2014": 8304,
      "male": 8305,
      "groups": 8306,
      "host": 8307,
      "Wikipedian": 8308,
      "wants": 8309,
      "1px": 8310,
      "willing": 8311,
      "gone": 8312,
      "MM": 8313,
      "altern": 8314,
      "assum": 8315,
      "IE": 8316,
      "ino": 8317,
      "HAHAHAHA": 8318,
      "replace": 8319,
      "75": 8320,
      "iculous": 8321,
      "plies": 8322,
      "summar": 8323,
      "ires": 8324,
      "tre": 8325,
      "knows": 8326,
      "Pa": 8327,
      "Dece": 8328,
      "mous": 8329,
      "pression": 8330,
      "NT": 8331,
      "irth": 8332,
      "fortunately": 8333,
      "sw": 8334,
      "town": 8335,
      "Je": 8336,
      "majority": 8337,
      "difficult": 8338,
      "pay": 8339,
      "SA": 8340,
      "ump": 8341,
      "):": 8342,
      "PC": 8343,
      "gest": 8344,
      "anim": 8345,
      "'''": 8346,
      "mistake": 8347,
      "ept": 8348,
      "sometimes": 8349,
      "cto": 8350,
      "September": 8351,
      "BC": 8352,
      "chance": 8353,
      "fish": 8354,
      "Great": 8355,
      "stra": 8356,
      "legit": 8357,
      "examples": 8358,
      "Republic": 8359,
      "ka": 8360,
      "itting": 8361,
      "concerns": 8362,
      "December": 8363,
      "Cent": 8364,
      "stub": 8365,
      "mand": 8366,
      "ches": 8367,
      "Anyway": 8368,
      "init": 8369,
      "towards": 8370,
      "influ": 8371,
      "miss": 8372,
      "Her": 8373,
      "bul": 8374,
      "lt": 8375,
      "Most": 8376,
      "liber": 8377,
      "nstar": 8378,
      "\"==": 8379,
      "Further": 8380,
      "plate": 8381,
      "196": 8382,
      "lists": 8383,
      "Should": 8384,
      "pen": 8385,
      "track": 8386,
      "chan": 8387,
      "cum": 8388,
      "48": 8389,
      "Ben": 8390,
      "immedi": 8391,
      "pictures": 8392,
      "Regards": 8393,
      "gon": 8394,
      "Sha": 8395,
      "hit": 8396,
      "ished": 8397,
      "totally": 8398,
      "gress": 8399,
      "tool": 8400,
      "population": 8401,
      "academ": 8402,
      "colle": 8403,
      "computer": 8404,
      "demon": 8405,
      "takes": 8406,
      "protected": 8407,
      "div": 8408,
      "hahahaha": 8409,
      "People": 8410,
      "French": 8411,
      "weight": 8412,
      "ots": 8413,
      "verifiable": 8414,
      "North": 8415,
      "local": 8416,
      "Mal": 8417,
      "events": 8418,
      "importance": 8419,
      "PEN": 8420,
      "mur": 8421,
      "Nove": 8422,
      "Red": 8423,
      "experience": 8424,
      "2013": 8425,
      "fas": 8426,
      "century": 8427,
      "religion": 8428,
      "dest": 8429,
      "thern": 8430,
      "kr": 8431,
      "disambig": 8432,
      "results": 8433,
      "70": 8434,
      "bol": 8435,
      "Arch": 8436,
      "Gre": 8437,
      "andom": 8438,
      "Yeah": 8439,
      "merely": 8440,
      "inese": 8441,
      "possibly": 8442,
      "lost": 8443,
      "absolutely": 8444,
      "spo": 8445,
      "standards": 8446,
      "constructive": 8447,
      "easy": 8448,
      "TI": 8449,
      "success": 8450,
      "Part": 8451,
      "aid": 8452,
      "tions": 8453,
      "missing": 8454,
      "blank": 8455,
      "internet": 8456,
      "gun": 8457,
      "benef": 8458,
      "November": 8459,
      "SU": 8460,
      "mitted": 8461,
      "abuse": 8462,
      "FFFF": 8463,
      "fund": 8464,
      "ethnic": 8465,
      "vio": 8466,
      "fficient": 8467,
      "nel": 8468,
      "money": 8469,
      "Its": 8470,
      "ends": 8471,
      "advice": 8472,
      "antly": 8473,
      "organization": 8474,
      "independent": 8475,
      "explained": 8476,
      "Dan": 8477,
      "perform": 8478,
      "Happy": 8479,
      "posting": 8480,
      "THAT": 8481,
      "Serb": 8482,
      "York": 8483,
      "surpr": 8484,
      "teach": 8485,
      "apparently": 8486,
      "Every": 8487,
      "Black": 8488,
      "Octo": 8489,
      "Sw": 8490,
      "blocking": 8491,
      "decision": 8492,
      "highly": 8493,
      "enced": 8494,
      "goog": 8495,
      "ridiculous": 8496,
      "October": 8497,
      "hur": 8498,
      "lie": 8499,
      "Fair": 8500,
      "loy": 8501,
      "letter": 8502,
      "flag": 8503,
      "properly": 8504,
      "AfD": 8505,
      "total": 8506,
      "pain": 8507,
      "rock": 8508,
      "Preceding": 8509,
      "erring": 8510,
      "familiar": 8511,
      "Second": 8512,
      "apply": 8513,
      "controversial": 8514,
      "shall": 8515,
      "recomm": 8516,
      "Inter": 8517,
      "FC": 8518,
      "cand": 8519,
      "omb": 8520,
      "0000": 8521,
      "ination": 8522,
      "father": 8523,
      "Regard": 8524,
      "lent": 8525,
      "supported": 8526,
      "cise": 8527,
      "propag": 8528,
      "ology": 8529,
      "easily": 8530,
      "pointed": 8531,
      "forward": 8532,
      "templates": 8533,
      "suspect": 8534,
      "struct": 8535,
      "01": 8536,
      "ahead": 8537,
      "Jesus": 8538,
      "military": 8539,
      "inappropriate": 8540,
      "WE": 8541,
      "ris": 8542,
      "super": 8543,
      "AAAA": 8544,
      "ium": 8545,
      "club": 8546,
      "Hope": 8547,
      "Ear": 8548,
      "Jim": 8549,
      "bey": 8550,
      "lex": 8551,
      "bert": 8552,
      "ues": 8553,
      "nomination": 8554,
      "Greek": 8555,
      "movie": 8556,
      "Cont": 8557,
      "Muslim": 8558,
      "Many": 8559,
      "water": 8560,
      "ries": 8561,
      "usage": 8562,
      "front": 8563,
      "ather": 8564,
      "sof": 8565,
      "fit": 8566,
      "belief": 8567,
      "discussions": 8568,
      "suit": 8569,
      "YOUFUCK": 8570,
      "wording": 8571,
      "publish": 8572,
      "ouble": 8573,
      "parent": 8574,
      "removal": 8575,
      "religious": 8576,
      "noted": 8577,
      "investig": 8578,
      "PENIS": 8579,
      "rr": 8580,
      "77": 8581,
      "ung": 8582,
      "moving": 8583,
      "soph": 8584,
      "________": 8585,
      "FG": 8586,
      "State": 8587,
      "ference": 8588,
      "Delet": 8589,
      "excl": 8590,
      "Mor": 8591,
      "versy": 8592,
      "=]": 8593,
      "blood": 8594,
      "encyclopedic": 8595,
      "MOTHER": 8596,
      "ZZZZZZZZ": 8597,
      "nature": 8598,
      "shown": 8599,
      "TT": 8600,
      "bast": 8601,
      "season": 8602,
      "News": 8603,
      "mistak": 8604,
      "cient": 8605,
      "sis": 8606,
      "mocr": 8607,
      "Mer": 8608,
      "estern": 8609,
      "lled": 8610,
      "FAT": 8611,
      "label": 8612,
      "ار": 8613,
      "house": 8614,
      "David": 8615,
      "respons": 8616,
      "confirm": 8617,
      "core": 8618,
      "distr": 8619,
      "retard": 8620,
      "phrase": 8621,
      "dog": 8622,
      "prevent": 8623,
      "paper": 8624,
      "pussy": 8625,
      "occur": 8626,
      "econom": 8627,
      "ای": 8628,
      "duct": 8629,
      "describe": 8630,
      "Pres": 8631,
      "ruary": 8632,
      "profession": 8633,
      "value": 8634,
      "Scot": 8635,
      "در": 8636,
      "newsp": 8637,
      "EST": 8638,
      "Iran": 8639,
      "08": 8640,
      "games": 8641,
      "ALAL": 8642,
      "ford": 8643,
      "BLP": 8644,
      "ales": 8645,
      "forum": 8646,
      "sounds": 8647,
      "cat": 8648,
      "argue": 8649,
      "Indian": 8650,
      "capital": 8651,
      "played": 8652,
      "February": 8653,
      "fre": 8654,
      "eder": 8655,
      "posts": 8656,
      "Cam": 8657,
      "Char": 8658,
      "China": 8659,
      "favor": 8660,
      "regards": 8661,
      "comb": 8662,
      "harass": 8663,
      "Min": 8664,
      "bottom": 8665,
      "35": 8666,
      "journal": 8667,
      "intention": 8668,
      "HHHH": 8669,
      "?)": 8670,
      "base": 8671,
      "final": 8672,
      "vs": 8673,
      "F5": 8674,
      "HT": 8675,
      "VAG": 8676,
      "luck": 8677,
      "Like": 8678,
      "boob": 8679,
      "Ital": 8680,
      "cool": 8681,
      "ARD": 8682,
      "fool": 8683,
      "mostly": 8684,
      "NY": 8685,
      "rant": 8686,
      "google": 8687,
      "join": 8688,
      "thod": 8689,
      "olic": 8690,
      "Church": 8691,
      "places": 8692,
      "tests": 8693,
      "fixed": 8694,
      "accounts": 8695,
      "god": 8696,
      "fire": 8697,
      "rap": 8698,
      "notes": 8699,
      "alog": 8700,
      "couldn": 8701,
      "basis": 8702,
      "31": 8703,
      "istan": 8704,
      "Inst": 8705,
      "@@": 8706,
      "killed": 8707,
      "oud": 8708,
      "Chinese": 8709,
      "print": 8710,
      "court": 8711,
      "established": 8712,
      "Common": 8713,
      "INA": 8714,
      "iability": 8715,
      "requesting": 8716,
      "basic": 8717,
      "TAB": 8718,
      "merge": 8719,
      "techn": 8720,
      "incident": 8721,
      "birth": 8722,
      "PA": 8723,
      "claimed": 8724,
      "released": 8725,
      "ube": 8726,
      "prick": 8727,
      "asing": 8728,
      "pir": 8729,
      "eat": 8730,
      "late": 8731,
      "index": 8732,
      "negative": 8733,
      "OH": 8734,
      "expert": 8735,
      "Cath": 8736,
      "format": 8737,
      "Rel": 8738,
      "effort": 8739,
      "Ver": 8740,
      "aaaaaaaaaaaaaaaa": 8741,
      "edon": 8742,
      "approach": 8743,
      "%\"\"": 8744,
      "guideline": 8745,
      "ام": 8746,
      "prior": 8747,
      "demonstr": 8748,
      "neither": 8749,
      "drop": 8750,
      "Cro": 8751,
      "bother": 8752,
      "arbit": 8753,
      "cel": 8754,
      "arts": 8755,
      "required": 8756,
      "ideas": 8757,
      "bullshit": 8758,
      "round": 8759,
      "06": 8760,
      "F5FF": 8761,
      "Des": 8762,
      "grad": 8763,
      "!!!!!!!!!!!!!!!!!!!!!!!!!!!!!!!!!!!!!!!!!!!!!!!!!!!!!!!!!!!!!!!!": 8764,
      "KILL": 8765,
      "incre": 8766,
      "pan": 8767,
      "select": 8768,
      "dates": 8769,
      "vict": 8770,
      "somewhere": 8771,
      "F5FFFA": 8772,
      "Ber": 8773,
      "Under": 8774,
      "ias": 8775,
      "paign": 8776,
      "HELL": 8777,
      "iel": 8778,
      "broad": 8779,
      "pic": 8780,
      "graphies": 8781,
      "03": 8782,
      "VAND": 8783,
      "ald": 8784,
      "stream": 8785,
      "referring": 8786,
      "va": 8787,
      "suggestion": 8788,
      "wers": 8789,
      "wondering": 8790,
      "span": 8791,
      "nation": 8792,
      "ouch": 8793,
      "olution": 8794,
      "BALL": 8795,
      "blog": 8796,
      "itate": 8797,
      "aste": 8798,
      "encour": 8799,
      "han": 8800,
      "ensor": 8801,
      "huge": 8802,
      "Actually": 8803,
      "ست": 8804,
      "concerned": 8805,
      "quotes": 8806,
      "',": 8807,
      "cup": 8808,
      "spelling": 8809,
      "joke": 8810,
      "nominated": 8811,
      "VANDAL": 8812,
      "Ha": 8813,
      "iet": 8814,
      "study": 8815,
      "44": 8816,
      "became": 8817,
      "seeing": 8818,
      "sufficient": 8819,
      "categories": 8820,
      "discussing": 8821,
      "Jack": 8822,
      "IV": 8823,
      "bed": 8824,
      "Template": 8825,
      "parts": 8826,
      "weeks": 8827,
      "depend": 8828,
      "candid": 8829,
      "ips": 8830,
      "presented": 8831,
      "(~~~~);": 8832,
      "episode": 8833,
      "compar": 8834,
      "ibr": 8835,
      "Fl": 8836,
      "license": 8837,
      "Cur": 8838,
      "aming": 8839,
      "36": 8840,
      "thread": 8841,
      "crimin": 8842,
      "service": 8843,
      "shot": 8844,
      "types": 8845,
      "intended": 8846,
      "ون": 8847,
      "length": 8848,
      "WTF": 8849,
      "appreciated": 8850,
      "DICKS": 8851,
      "ado": 8852,
      "2015": 8853,
      "suggested": 8854,
      "AY": 8855,
      "hypo": 8856,
      "Russian": 8857,
      "promise": 8858,
      "iven": 8859,
      "West": 8860,
      "PH": 8861,
      "James": 8862,
      "random": 8863,
      "immediately": 8864,
      "OFF": 8865,
      "psy": 8866,
      "scholar": 8867,
      "train": 8868,
      "trouble": 8869,
      "Although": 8870,
      "characters": 8871,
      "Getting": 8872,
      "School": 8873,
      "hey": 8874,
      "lol": 8875,
      "speedily": 8876,
      "ius": 8877,
      "wan": 8878,
      "imag": 8879,
      "satis": 8880,
      "ات": 8881,
      "heav": 8882,
      "ju": 8883,
      "nu": 8884,
      "chal": 8885,
      "loser": 8886,
      "Frank": 8887,
      "trust": 8888,
      "aut": 8889,
      "edy": 8890,
      "ands": 8891,
      "topics": 8892,
      "compan": 8893,
      "BLO": 8894,
      "php": 8895,
      "meets": 8896,
      "previously": 8897,
      "Ano": 8898,
      "Ham": 8899,
      "IA": 8900,
      "sal": 8901,
      "kept": 8902,
      "ja": 8903,
      "NN": 8904,
      "Tutorial": 8905,
      "ERE": 8906,
      "Port": 8907,
      "sme": 8908,
      "WILL": 8909,
      "via": 8910,
      "role": 8911,
      "aff": 8912,
      "yyyyyyyy": 8913,
      "insert": 8914,
      "telling": 8915,
      "beyond": 8916,
      "tee": 8917,
      "method": 8918,
      ")\"": 8919,
      "ignore": 8920,
      "...\"\"": 8921,
      "exists": 8922,
      "contribution": 8923,
      "brought": 8924,
      "tend": 8925,
      "instance": 8926,
      "princ": 8927,
      "Japanese": 8928,
      "Main": 8929,
      "Su": 8930,
      "llig": 8931,
      "La": 8932,
      "anymore": 8933,
      "Hit": 8934,
      "Nig": 8935,
      "ba": 8936,
      "ANI": 8937,
      "controversy": 8938,
      "received": 8939,
      "room": 8940,
      "pun": 8941,
      "aft": 8942,
      "ifying": 8943,
      "osex": 8944,
      "Scr": 8945,
      "grow": 8946,
      "ament": 8947,
      "fairly": 8948,
      "ifies": 8949,
      "somebody": 8950,
      "onymous": 8951,
      "orge": 8952,
      "lls": 8953,
      "model": 8954,
      "acting": 8955,
      "VAGINA": 8956,
      "proposal": 8957,
      "glad": 8958,
      "nobody": 8959,
      "ites": 8960,
      "hael": 8961,
      "ANAL": 8962,
      "reviewed": 8963,
      "European": 8964,
      "?\"\"": 8965,
      "FUCKER": 8966,
      "practice": 8967,
      "ceed": 8968,
      "odes": 8969,
      "archive": 8970,
      "HAT": 8971,
      "happens": 8972,
      "conduct": 8973,
      "ONE": 8974,
      "corpor": 8975,
      "Commun": 8976,
      "hop": 8977,
      "lies": 8978,
      "Read": 8979,
      "Germany": 8980,
      "despite": 8981,
      "Media": 8982,
      "PIG": 8983,
      "thetic": 8984,
      "sens": 8985,
      "movement": 8986,
      "osexual": 8987,
      "05": 8988,
      "$$": 8989,
      "ases": 8990,
      "spir": 8991,
      "38": 8992,
      "iam": 8993,
      "return": 8994,
      "listen": 8995,
      "ried": 8996,
      "speaking": 8997,
      "!)": 8998,
      "\":": 8999,
      "knew": 9000,
      "race": 9001,
      "vari": 9002,
      "Nazi": 9003,
      "yours": 9004,
      "BU": 9005,
      "Right": 9006,
      "sem": 9007,
      "church": 9008,
      "protection": 9009,
      "refers": 9010,
      "nnnnnnnn": 9011,
      "secondary": 9012,
      "beginning": 9013,
      "dig": 9014,
      "silly": 9015,
      "unsourced": 9016,
      "spl": 9017,
      "ulations": 9018,
      "Tom": 9019,
      "IDS": 9020,
      "funny": 9021,
      "feed": 9022,
      "center": 9023,
      "referred": 9024,
      "phen": 9025,
      "alls": 9026,
      "68": 9027,
      "aspect": 9028,
      "whose": 9029,
      "itude": 9030,
      "fucker": 9031,
      "Lu": 9032,
      "reput": 9033,
      "City": 9034,
      "fart": 9035,
      "iously": 9036,
      "contributors": 9037,
      "ordin": 9038,
      "brain": 9039,
      "BLOCK": 9040,
      "mental": 9041,
      "oh": 9042,
      "Gener": 9043,
      "aH": 9044,
      "ky": 9045,
      "manner": 9046,
      "damn": 9047,
      "According": 9048,
      "academic": 9049,
      "propaganda": 9050,
      "evil": 9051,
      "11111111": 9052,
      "uuuu": 9053,
      "bes": 9054,
      "limited": 9055,
      "Another": 9056,
      "websites": 9057,
      "High": 9058,
      "showing": 9059,
      "languages": 9060,
      "02": 9061,
      "cccc": 9062,
      "db": 9063,
      "WITH": 9064,
      "GOD": 9065,
      "thous": 9066,
      "ctor": 9067,
      "warnings": 9068,
      "UUUUUUUU": 9069,
      "campaign": 9070,
      "Cy": 9071,
      "FO": 9072,
      "anc": 9073,
      "factual": 9074,
      "philo": 9075,
      "icit": 9076,
      "alest": 9077,
      "worthy": 9078,
      "WANK": 9079,
      "gree": 9080,
      "era": 9081,
      "normal": 9082,
      "disambiguation": 9083,
      "Hu": 9084,
      "administrators": 9085,
      "Str": 9086,
      "young": 9087,
      "plain": 9088,
      "USA": 9089,
      "Irish": 9090,
      "uel": 9091,
      "agreed": 9092,
      "istics": 9093,
      "oppos": 9094,
      "England": 9095,
      "BLaH": 9096,
      "extremely": 9097,
      "04": 9098,
      "78": 9099,
      "photos": 9100,
      "afr": 9101,
      "versions": 9102,
      "counter": 9103,
      "legitimate": 9104,
      "Turk": 9105,
      "destroy": 9106,
      "Copy": 9107,
      "checking": 9108,
      "visit": 9109,
      "SEX": 9110,
      "96": 9111,
      "realize": 9112,
      "refr": 9113,
      "tempor": 9114,
      "lands": 9115,
      "distin": 9116,
      "ipt": 9117,
      "code": 9118,
      "math": 9119,
      "azy": 9120,
      "Paul": 9121,
      "Day": 9122,
      "sym": 9123,
      "died": 9124,
      "sold": 9125,
      "imp": 9126,
      "send": 9127,
      "advertising": 9128,
      "straight": 9129,
      "imedia": 9130,
      "choice": 9131,
      "76": 9132,
      "HU": 9133,
      "aging": 9134,
      "regular": 9135,
      "includes": 9136,
      "permission": 9137,
      "mic": 9138,
      "tradition": 9139,
      "licens": 9140,
      "brief": 9141,
      "playing": 9142,
      "leaving": 9143,
      "meas": 9144,
      "FUCKFUCK": 9145,
      "input": 9146,
      "Kore": 9147,
      "Cha": 9148,
      "ESS": 9149,
      "basically": 9150,
      "connection": 9151,
      "idge": 9152,
      "xy": 9153,
      "maintain": 9154,
      "09": 9155,
      "entially": 9156,
      "pure": 9157,
      "tle": 9158,
      "claiming": 9159,
      "HOLE": 9160,
      "iiii": 9161,
      "reality": 9162,
      "Bas": 9163,
      "bold": 9164,
      "wood": 9165,
      "intellig": 9166,
      "checked": 9167,
      "biography": 9168,
      "Macedon": 9169,
      "gas": 9170,
      "craft": 9171,
      "copyrighted": 9172,
      "CON": 9173,
      "attribut": 9174,
      "held": 9175,
      "alent": 9176,
      "uffy": 9177,
      "squ": 9178,
      "OUT": 9179,
      "coverage": 9180,
      "hesitate": 9181,
      "titles": 9182,
      "56": 9183,
      "Big": 9184,
      "stating": 9185,
      "IF": 9186,
      "ين": 9187,
      "finding": 9188,
      "azine": 9189,
      "Regarding": 9190,
      "areas": 9191,
      "woman": 9192,
      "offer": 9193,
      "offensive": 9194,
      "AST": 9195,
      "contrad": 9196,
      "atory": 9197,
      "famous": 9198,
      "WWWWWWWW": 9199,
      "involve": 9200,
      "34": 9201,
      "starting": 9202,
      "39": 9203,
      "Dear": 9204,
      "ources": 9205,
      "confused": 9206,
      "closed": 9207,
      "featured": 9208,
      "bunch": 9209,
      "oul": 9210,
      "apers": 9211,
      "Which": 9212,
      "blat": 9213,
      "lu": 9214,
      "iew": 9215,
      "nigga": 9216,
      "accusations": 9217,
      "behaviour": 9218,
      "football": 9219,
      "Michael": 9220,
      "XX": 9221,
      "glo": 9222,
      "tract": 9223,
      "censor": 9224,
      "!!!!!": 9225,
      "tone": 9226,
      "aring": 9227,
      "international": 9228,
      "communic": 9229,
      "judge": 9230,
      "achie": 9231,
      "vil": 9232,
      "fol": 9233,
      "positive": 9234,
      "Vandalism": 9235,
      "lad": 9236,
      "keeping": 9237,
      "Deletion": 9238,
      "usive": 9239,
      "anywhere": 9240,
      "pressed": 9241,
      "suggestions": 9242,
      "Questions": 9243,
      "inge": 9244,
      "hat": 9245,
      "lots": 9246,
      "White": 9247,
      "udd": 9248,
      "repeatedly": 9249,
      "swe": 9250,
      "Canada": 9251,
      "assist": 9252,
      "failed": 9253,
      "07": 9254,
      "Cong": 9255,
      "sick": 9256,
      "ondon": 9257,
      "somewhat": 9258,
      "hamp": 9259,
      "refrain": 9260,
      "PLE": 9261,
      "ivility": 9262,
      "Sun": 9263,
      "از": 9264,
      "ource": 9265,
      "Met": 9266,
      "kkkk": 9267,
      "Person": 9268,
      "aves": 9269,
      "persons": 9270,
      "choose": 9271,
      ".....": 9272,
      "strongly": 9273,
      "ills": 9274,
      "reland": 9275,
      "Ang": 9276,
      "marks": 9277,
      "Keep": 9278,
      "RU": 9279,
      "ilt": 9280,
      "san": 9281,
      "AGE": 9282,
      "George": 9283,
      "gain": 9284,
      "ops": 9285,
      "recommend": 9286,
      "rate": 9287,
      "update": 9288,
      "ports": 9289,
      "EVER": 9290,
      "Sci": 9291,
      "okay": 9292,
      "BUTT": 9293,
      "WANKER": 9294,
      "Air": 9295,
      "amer": 9296,
      "3RR": 9297,
      "uploading": 9298,
      "86": 9299,
      "pol": 9300,
      "spac": 9301,
      "Palest": 9302,
      "African": 9303,
      "perfectly": 9304,
      "AK": 9305,
      "triv": 9306,
      "54": 9307,
      "enn": 9308,
      "reedom": 9309,
      "East": 9310,
      "critical": 9311,
      "(\"\"": 9312,
      "sockpuppet": 9313,
      "ech": 9314,
      "admit": 9315,
      "thinks": 9316,
      "authority": 9317,
      "Thom": 9318,
      "contains": 9319,
      "Coun": 9320,
      "road": 9321,
      "updated": 9322,
      "misleading": 9323,
      "share": 9324,
      "oooooooo": 9325,
      "circum": 9326,
      "sco": 9327,
      "zzzzzzzz": 9328,
      "consistent": 9329,
      "applic": 9330,
      "Mag": 9331,
      "metal": 9332,
      "Catholic": 9333,
      "companies": 9334,
      "eyes": 9335,
      "igher": 9336,
      "police": 9337,
      "minutes": 9338,
      "enter": 9339,
      "ience": 9340,
      "tor": 9341,
      ":::::::": 9342,
      "running": 9343,
      "professional": 9344,
      "Ireland": 9345,
      "waste": 9346,
      "Op": 9347,
      "anced": 9348,
      "odd": 9349,
      "که": 9350,
      "iny": 9351,
      "match": 9352,
      "hot": 9353,
      "za": 9354,
      "explicit": 9355,
      "agend": 9356,
      "raised": 9357,
      "slight": 9358,
      "Rich": 9359,
      "tax": 9360,
      "felt": 9361,
      "relationship": 9362,
      "rank": 9363,
      "yo": 9364,
      "weak": 9365,
      "alogalog": 9366,
      "Er": 9367,
      "San": 9368,
      "Tit": 9369,
      "bag": 9370,
      "̈̈̈̈̈̈̈̈": 9371,
      "Lat": 9372,
      "wit": 9373,
      "anno": 9374,
      "intent": 9375,
      "atively": 9376,
      "undred": 9377,
      "frequ": 9378,
      "49": 9379,
      "Mis": 9380,
      "ㅂㄱ": 9381,
      "worse": 9382,
      "ㅂㄱㅇ": 9383,
      "uyuyuyuy": 9384,
      "London": 9385,
      "eye": 9386,
      "redu": 9387,
      "function": 9388,
      "mix": 9389,
      "reet": 9390,
      "appeared": 9391,
      "LF": 9392,
      "UE": 9393,
      "cil": 9394,
      "dia": 9395,
      "ior": 9396,
      "acknow": 9397,
      "helpme": 9398,
      "students": 9399,
      "Pat": 9400,
      "touch": 9401,
      "46": 9402,
      "Times": 9403,
      "range": 9404,
      "supp": 9405,
      "owner": 9406,
      "tytytyty": 9407,
      "Star": 9408,
      "ays": 9409,
      "itution": 9410,
      "logic": 9411,
      "Hind": 9412,
      "health": 9413,
      "forts": 9414,
      "eeeeeeee": 9415,
      "anonymous": 9416,
      "shared": 9417,
      "Ru": 9418,
      "bab": 9419,
      "37": 9420,
      "DS": 9421,
      "mouth": 9422,
      "pron": 9423,
      "Span": 9424,
      "BALLS": 9425,
      "88": 9426,
      "iver": 9427,
      "Link": 9428,
      "ption": 9429,
      "fuckfuck": 9430,
      "missed": 9431,
      "itic": 9432,
      "elsewhere": 9433,
      "introduction": 9434,
      "Gen": 9435,
      "MUST": 9436,
      "ki": 9437,
      "lower": 9438,
      "isation": 9439,
      "itation": 9440,
      "Free": 9441,
      "Book": 9442,
      "Sam": 9443,
      "Americans": 9444,
      "reverts": 9445,
      "Only": 9446,
      "Ah": 9447,
      "award": 9448,
      "additional": 9449,
      "gent": 9450,
      "Mart": 9451,
      "Poop": 9452,
      "Wikipedians": 9453,
      "RI": 9454,
      "من": 9455,
      "commer": 9456,
      "listing": 9457,
      "reached": 9458,
      "Unfortunately": 9459,
      "considering": 9460,
      "NOW": 9461,
      "uous": 9462,
      "numerous": 9463,
      "threaten": 9464,
      "replaced": 9465,
      "vey": 9466,
      "\"\")": 9467,
      "additions": 9468,
      "necessarily": 9469,
      "interpretation": 9470,
      "Ze": 9471,
      "alternative": 9472,
      "WHAT": 9473,
      "ano": 9474,
      "***": 9475,
      "sentences": 9476,
      "bbbb": 9477,
      "insist": 9478,
      "Someone": 9479,
      "tttt": 9480,
      "vill": 9481,
      "energy": 9482,
      "establish": 9483,
      ":*": 9484,
      "engine": 9485,
      "BA": 9486,
      "MON": 9487,
      "determin": 9488,
      "formatt": 9489,
      "efforts": 9490,
      "bastard": 9491,
      "Therefore": 9492,
      "followed": 9493,
      "Alex": 9494,
      "puppetry": 9495,
      "restr": 9496,
      "confirmed": 9497,
      ";;": 9498,
      "cuse": 9499,
      "onto": 9500,
      "tele": 9501,
      "OOOOOOOO": 9502,
      "collabor": 9503,
      "retarded": 9504,
      "Bio": 9505,
      "higher": 9506,
      "hundred": 9507,
      "vice": 9508,
      "iff": 9509,
      "Phil": 9510,
      "battle": 9511,
      "whom": 9512,
      "rot": 9513,
      "translation": 9514,
      "heads": 9515,
      "philosoph": 9516,
      "ashing": 9517,
      "RAPC": 9518,
      "easier": 9519,
      "Da": 9520,
      "Scruffy": 9521,
      "RAPCRAPC": 9522,
      "Bill": 9523,
      "Love": 9524,
      "earth": 9525,
      "throw": 9526,
      "forgot": 9527,
      "ANS": 9528,
      "helps": 9529,
      "Mark": 9530,
      "accused": 9531,
      "pred": 9532,
      "usual": 9533,
      "gggg": 9534,
      "cant": 9535,
      "hib": 9536,
      "اد": 9537,
      "Jud": 9538,
      "TS": 9539,
      "ferences": 9540,
      "region": 9541,
      "SER": 9542,
      "utter": 9543,
      "conform": 9544,
      "citiz": 9545,
      "screen": 9546,
      "Bel": 9547,
      "atives": 9548,
      "aking": 9549,
      "seemed": 9550,
      "geo": 9551,
      "aug": 9552,
      "market": 9553,
      "verify": 9554,
      "helping": 9555,
      "participate": 9556,
      "thoughts": 9557,
      "abs": 9558,
      "merged": 9559,
      "suppose": 9560,
      "occup": 9561,
      "Hitler": 9562,
      "rat": 9563,
      "ysis": 9564,
      "Australia": 9565,
      "32": 9566,
      "urb": 9567,
      "cret": 9568,
      "logged": 9569,
      "dered": 9570,
      "ife": 9571,
      "unders": 9572,
      "double": 9573,
      "EEEE": 9574,
      "natural": 9575,
      "thats": 9576,
      "wank": 9577,
      "opposed": 9578,
      "requires": 9579,
      "clicking": 9580,
      "Law": 9581,
      "Administr": 9582,
      "hood": 9583,
      "reports": 9584,
      "development": 9585,
      "amp": 9586,
      "conspir": 9587,
      "Sem": 9588,
      "mir": 9589,
      "located": 9590,
      "66": 9591,
      "AIDS": 9592,
      "Med": 9593,
      "mentions": 9594,
      "rop": 9595,
      "ns": 9596,
      "thesis": 9597,
      "Cour": 9598,
      "cul": 9599,
      "aries": 9600,
      "acts": 9601,
      "assess": 9602,
      "President": 9603,
      "disputed": 9604,
      "perspect": 9605,
      "building": 9606,
      "FRE": 9607,
      "reads": 9608,
      "subjects": 9609,
      "viet": 9610,
      "defined": 9611,
      "existence": 9612,
      "improving": 9613,
      "hhhhhhhh": 9614,
      "heart": 9615,
      "jection": 9616,
      "citing": 9617,
      "bands": 9618,
      "ji": 9619,
      "rew": 9620,
      "ston": 9621,
      "shut": 9622,
      "convers": 9623,
      "AC": 9624,
      "jer": 9625,
      "hair": 9626,
      "ibrary": 9627,
      "satisf": 9628,
      "solution": 9629,
      "Up": 9630,
      "KKKKKKKK": 9631,
      "resolution": 9632,
      "Ap": 9633,
      "aver": 9634,
      "tware": 9635,
      "correctly": 9636,
      "originally": 9637,
      "Once": 9638,
      "ictionary": 9639,
      "arian": 9640,
      "brother": 9641,
      "widely": 9642,
      "\",": 9643,
      "EL": 9644,
      "aster": 9645,
      "fucked": 9646,
      "interview": 9647,
      "pathetic": 9648,
      "agenda": 9649,
      "OW": 9650,
      "quickly": 9651,
      "Count": 9652,
      "hol": 9653,
      "draw": 9654,
      "ignorant": 9655,
      "pppppppp": 9656,
      "58": 9657,
      "gi": 9658,
      "fered": 9659,
      "Inc": 9660,
      "bill": 9661,
      "homosexual": 9662,
      "rog": 9663,
      "pointing": 9664,
      "newspaper": 9665,
      "associated": 9666,
      "].": 9667,
      "fiction": 9668,
      "Sl": 9669,
      "INK": 9670,
      "STUP": 9671,
      "Party": 9672,
      "nty": 9673,
      "arm": 9674,
      "mid": 9675,
      "rul": 9676,
      "finally": 9677,
      "truly": 9678,
      "DYK": 9679,
      "Que": 9680,
      "dict": 9681,
      "wwwwwwww": 9682,
      "WOR": 9683,
      "ran": 9684,
      "Those": 9685,
      "rude": 9686,
      "territ": 9687,
      "Barnstar": 9688,
      "confusing": 9689,
      "structure": 9690,
      "dru": 9691,
      "cellpadding": 9692,
      "peer": 9693,
      "experienced": 9694,
      "About": 9695,
      "Sure": 9696,
      "ades": 9697,
      "save": 9698,
      "Obama": 9699,
      "Suck": 9700,
      "six": 9701,
      "ival": 9702,
      "Armen": 9703,
      "apologize": 9704,
      "Au": 9705,
      "addressed": 9706,
      "ker": 9707,
      "ara": 9708,
      "matters": 9709,
      "conclusion": 9710,
      "victim": 9711,
      "STUPID": 9712,
      "lets": 9713,
      "BY": 9714,
      "Spanish": 9715,
      "%;": 9716,
      "SD": 9717,
      "cross": 9718,
      "fringe": 9719,
      "restored": 9720,
      "gonna": 9721,
      "smo": 9722,
      "nut": 9723,
      "pis": 9724,
      "yout": 9725,
      "requested": 9726,
      "98": 9727,
      "afraid": 9728,
      "figures": 9729,
      "mainstream": 9730,
      "Trans": 9731,
      "theories": 9732,
      "ONG": 9733,
      "RfC": 9734,
      "47": 9735,
      "MIN": 9736,
      "rer": 9737,
      "speech": 9738,
      "hardly": 9739,
      "به": 9740,
      "tood": 9741,
      "quoted": 9742,
      "option": 9743,
      "blocks": 9744,
      "oph": 9745,
      "watching": 9746,
      "Gover": 9747,
      "fast": 9748,
      "بر": 9749,
      "somehow": 9750,
      "2000": 9751,
      "reve": 9752,
      "!!!!!!!!!!!!": 9753,
      "TRA": 9754,
      "iter": 9755,
      "criterion": 9756,
      "shortly": 9757,
      "tired": 9758,
      "proven": 9759,
      "errors": 9760,
      "anybody": 9761,
      "Roy": 9762,
      "!\"\"": 9763,
      "cost": 9764,
      "Sock": 9765,
      "font": 9766,
      "BTW": 9767,
      "domain": 9768,
      "latter": 9769,
      "sole": 9770,
      "Park": 9771,
      "ida": 9772,
      "president": 9773,
      "TA": 9774,
      "Ty": 9775,
      "irty": 9776,
      "experimenting": 9777,
      "Mu": 9778,
      "anger": 9779,
      "standing": 9780,
      "belongs": 9781,
      "ico": 9782,
      "contents": 9783,
      "Jer": 9784,
      "fans": 9785,
      "ssss": 9786,
      "supporting": 9787,
      "Bark": 9788,
      "Was": 9789,
      "mentioning": 9790,
      "Int": 9791,
      "twice": 9792,
      "Okay": 9793,
      "Bra": 9794,
      "grand": 9795,
      "\"\"...": 9796,
      "logo": 9797,
      "2003": 9798,
      "evolution": 9799,
      "providing": 9800,
      ";)": 9801,
      "conserv": 9802,
      "rd": 9803,
      "HAVE": 9804,
      "Check": 9805,
      "fasc": 9806,
      "Commons": 9807,
      "هم": 9808,
      "extra": 9809,
      "blue": 9810,
      "contradict": 9811,
      "Sing": 9812,
      "yer": 9813,
      "cale": 9814,
      "Bul": 9815,
      "propose": 9816,
      "Canad": 9817,
      "substanti": 9818,
      "target": 9819,
      "Scott": 9820,
      "Dep": 9821,
      "commercial": 9822,
      "BI": 9823,
      "WHO": 9824,
      "ov": 9825,
      "ANY": 9826,
      "affect": 9827,
      "careful": 9828,
      "Em": 9829,
      "forget": 9830,
      "worry": 9831,
      "biographies": 9832,
      "yeah": 9833,
      "likes": 9834,
      "technical": 9835,
      "42": 9836,
      "pushing": 9837,
      "location": 9838,
      "App": 9839,
      "llll": 9840,
      "tagging": 9841,
      "keeps": 9842,
      "summaries": 9843,
      ".[": 9844,
      "forms": 9845,
      "society": 9846,
      "private": 9847,
      "express": 9848,
      "hasn": 9849,
      "connect": 9850,
      "remind": 9851,
      "Intern": 9852,
      "entries": 9853,
      "paid": 9854,
      "analysis": 9855,
      "Emp": 9856,
      "Found": 9857,
      "PP": 9858,
      "mod": 9859,
      "integr": 9860,
      "promote": 9861,
      "rum": 9862,
      "Cons": 9863,
      "92": 9864,
      "significance": 9865,
      "continued": 9866,
      "studies": 9867,
      "athe": 9868,
      "ek": 9869,
      "ties": 9870,
      "deep": 9871,
      "credit": 9872,
      "sle": 9873,
      "Western": 9874,
      "medical": 9875,
      "Internet": 9876,
      "imply": 9877,
      "employ": 9878,
      "Sal": 9879,
      "Sign": 9880,
      "ISH": 9881,
      "stalk": 9882,
      "copied": 9883,
      "complex": 9884,
      "surprised": 9885,
      "Kur": 9886,
      "ALK": 9887,
      "porn": 9888,
      "House": 9889,
      "ls": 9890,
      "thors": 9891,
      "reviews": 9892,
      "writer": 9893,
      "understood": 9894,
      "split": 9895,
      "inent": 9896,
      "demand": 9897,
      "specified": 9898,
      "DID": 9899,
      "xxxx": 9900,
      "throughout": 9901,
      "LAME": 9902,
      "با": 9903,
      "fault": 9904,
      "Rock": 9905,
      "clarify": 9906,
      "lay": 9907,
      "south": 9908,
      "preh": 9909,
      "career": 9910,
      "XZ": 9911,
      "sides": 9912,
      "sec": 9913,
      "ously": 9914,
      "ey": 9915,
      "ASE": 9916,
      "homo": 9917,
      "tour": 9918,
      "stands": 9919,
      "parties": 9920,
      "detailed": 9921,
      "Russia": 9922,
      "lly": 9923,
      "lives": 9924,
      "plot": 9925,
      "thro": 9926,
      "Cap": 9927,
      "nast": 9928,
      "Chris": 9929,
      "responsible": 9930,
      "food": 9931,
      "Soviet": 9932,
      "Time": 9933,
      "Post": 9934,
      "ises": 9935,
      "nyan": 9936,
      "Furthermore": 9937,
      "progress": 9938,
      "ORLY": 9939,
      "beat": 9940,
      "caused": 9941,
      "kids": 9942,
      "reject": 9943,
      "Alban": 9944,
      "potential": 9945,
      "43": 9946,
      "station": 9947,
      "imm": 9948,
      "modif": 9949,
      "kid": 9950,
      "leader": 9951,
      "confusion": 9952,
      "Sub": 9953,
      "ancient": 9954,
      "DIXZ": 9955,
      "player": 9956,
      "Ken": 9957,
      "calls": 9958,
      "SUCKS": 9959,
      "Mat": 9960,
      "suggesting": 9961,
      "41": 9962,
      "MS": 9963,
      "ها": 9964,
      "onic": 9965,
      "instruct": 9966,
      "harm": 9967,
      "59": 9968,
      "Sat": 9969,
      "DD": 9970,
      "files": 9971,
      "loss": 9972,
      "Polish": 9973,
      "nearly": 9974,
      "iation": 9975,
      "los": 9976,
      "puppets": 9977,
      "\"::": 9978,
      "earch": 9979,
      "fellow": 9980,
      "3px": 9981,
      "jack": 9982,
      "Conf": 9983,
      "deserve": 9984,
      "Archive": 9985,
      "bomb": 9986,
      "illustr": 9987,
      "iance": 9988,
      "election": 9989,
      "accident": 9990,
      "Fa": 9991,
      "individuals": 9992,
      "71": 9993,
      "izations": 9994,
      "minim": 9995,
      "politics": 9996,
      "Hum": 9997,
      "occas": 9998,
      "Earth": 9999,
      "semi": 10000,
      "verified": 10001,
      "walk": 10002,
      "ality": 10003,
      "Both": 10004,
      "Speedy": 10005,
      "pi": 10006,
      "agon": 10007,
      "compet": 10008,
      "butt": 10009,
      "authors": 10010,
      "busy": 10011,
      "Kar": 10012,
      "phone": 10013,
      "peace": 10014,
      "ENT": 10015,
      "identity": 10016,
      "attempts": 10017,
      "Vir": 10018,
      "worst": 10019,
      "RED": 10020,
      "perspective": 10021,
      "International": 10022,
      "Gay": 10023,
      "nes": 10024,
      "pled": 10025,
      "ert": 10026,
      "Balls": 10027,
      "collect": 10028,
      "opening": 10029,
      "DONT": 10030,
      "lege": 10031,
      "warned": 10032,
      "cities": 10033,
      "concerning": 10034,
      "announ": 10035,
      "gro": 10036,
      "began": 10037,
      "latest": 10038,
      "turned": 10039,
      "freedom": 10040,
      "bon": 10041,
      "bound": 10042,
      "degree": 10043,
      "ATE": 10044,
      "KEY": 10045,
      "DAM": 10046,
      "pse": 10047,
      "Pak": 10048,
      "Ukr": 10049,
      "kick": 10050,
      "laugh": 10051,
      "lla": 10052,
      "reasoning": 10053,
      "idiots": 10054,
      "Polic": 10055,
      "fundament": 10056,
      "precise": 10057,
      "magazine": 10058,
      "ari": 10059,
      "delay": 10060,
      "conspiracy": 10061,
      "rom": 10062,
      "ander": 10063,
      "THING": 10064,
      "ffff": 10065,
      "production": 10066,
      "anch": 10067,
      "provides": 10068,
      "regardless": 10069,
      "software": 10070,
      "WAS": 10071,
      "spent": 10072,
      "voice": 10073,
      "minority": 10074,
      "Super": 10075,
      "influence": 10076,
      "Old": 10077,
      "ول": 10078,
      "height": 10079,
      "attitude": 10080,
      "FI": 10081,
      "https": 10082,
      "advoc": 10083,
      "Del": 10084,
      "isions": 10085,
      "suff": 10086,
      "teen": 10087,
      "smart": 10088,
      "Du": 10089,
      "MP": 10090,
      "Try": 10091,
      "contributor": 10092,
      "dealing": 10093,
      "feedback": 10094,
      "rian": 10095,
      "ani": 10096,
      "master": 10097,
      "Kingdom": 10098,
      "uded": 10099,
      "parents": 10100,
      "graphic": 10101,
      "threats": 10102,
      "William": 10103,
      "murder": 10104,
      "Win": 10105,
      "amed": 10106,
      "female": 10107,
      "SELF": 10108,
      "Bush": 10109,
      "Fag": 10110,
      "OUS": 10111,
      "ederal": 10112,
      "Last": 10113,
      "forced": 10114,
      "userpage": 10115,
      "cellent": 10116,
      "57": 10117,
      "rare": 10118,
      "********": 10119,
      "assert": 10120,
      "symbol": 10121,
      "antic": 10122,
      "foreign": 10123,
      "FAGS": 10124,
      "Thomas": 10125,
      "crime": 10126,
      "Tech": 10127,
      "FUK": 10128,
      "suitable": 10129,
      "revision": 10130,
      "proced": 10131,
      "GGT": 10132,
      "substant": 10133,
      "assuming": 10134,
      "defend": 10135,
      "Non": 10136,
      "ern": 10137,
      "wife": 10138,
      "impression": 10139,
      "compromise": 10140,
      "benefit": 10141,
      "cro": 10142,
      "hob": 10143,
      "Croat": 10144,
      "istered": 10145,
      "justify": 10146,
      "wars": 10147,
      "pull": 10148,
      "impossible": 10149,
      "involvement": 10150,
      "Web": 10151,
      "Wales": 10152,
      "aRe": 10153,
      "POO": 10154,
      "rub": 10155,
      "itor": 10156,
      "gue": 10157,
      "LOLO": 10158,
      "Peter": 10159,
      "FE": 10160,
      "RT": 10161,
      "bat": 10162,
      "democr": 10163,
      "plus": 10164,
      "poses": 10165,
      "songs": 10166,
      "Class": 10167,
      "Ukrain": 10168,
      "BAR": 10169,
      "bish": 10170,
      "education": 10171,
      "flo": 10172,
      "youfuck": 10173,
      "goal": 10174,
      "cru": 10175,
      "syn": 10176,
      "talkpage": 10177,
      "YYYY": 10178,
      "cele": 10179,
      "compe": 10180,
      "plenty": 10181,
      "remains": 10182,
      "thousands": 10183,
      "69": 10184,
      "ox": 10185,
      "hole": 10186,
      "objective": 10187,
      "Israeli": 10188,
      "Off": 10189,
      "bud": 10190,
      "scholars": 10191,
      "Mad": 10192,
      "equal": 10193,
      "sam": 10194,
      "inno": 10195,
      "France": 10196,
      "invent": 10197,
      "hampion": 10198,
      "AH": 10199,
      "task": 10200,
      "ingly": 10201,
      "ustry": 10202,
      "species": 10203,
      ")?": 10204,
      "ور": 10205,
      "compreh": 10206,
      "corrected": 10207,
      "eventually": 10208,
      "mistakes": 10209,
      "native": 10210,
      "motiv": 10211,
      "DR": 10212,
      "Wow": 10213,
      "pha": 10214,
      "heading": 10215,
      "ATION": 10216,
      "Anyone": 10217,
      "itute": 10218,
      "applied": 10219,
      "berg": 10220,
      "72": 10221,
      "85": 10222,
      "Never": 10223,
      "ception": 10224,
      "suggests": 10225,
      "voted": 10226,
      "irection": 10227,
      "alleged": 10228,
      "né": 10229,
      "ining": 10230,
      "english": 10231,
      "General": 10232,
      "Inte": 10233,
      "Arb": 10234,
      "fighting": 10235,
      "Ve": 10236,
      "ما": 10237,
      "altered": 10238,
      "horr": 10239,
      "unnecessary": 10240,
      "ilities": 10241,
      "emo": 10242,
      "slow": 10243,
      "plement": 10244,
      "COCKS": 10245,
      "appeal": 10246,
      "DAMN": 10247,
      "()": 10248,
      "las": 10249,
      "lence": 10250,
      "conversation": 10251,
      "Cal": 10252,
      "ipple": 10253,
      "techno": 10254,
      "emphas": 10255,
      "literature": 10256,
      "Bur": 10257,
      "office": 10258,
      "agreement": 10259,
      "deliber": 10260,
      "gypt": 10261,
      "insult": 10262,
      "oil": 10263,
      "edu": 10264,
      "serve": 10265,
      "Contribut": 10266,
      "Sar": 10267,
      "Som": 10268,
      "largest": 10269,
      "Out": 10270,
      "noticeboard": 10271,
      "RfA": 10272,
      "mes": 10273,
      "forces": 10274,
      "vandalizing": 10275,
      "Origin": 10276,
      "Die": 10277,
      "Fil": 10278,
      "ingu": 10279,
      "artist": 10280,
      "anted": 10281,
      "ignored": 10282,
      "expanded": 10283,
      "shame": 10284,
      "passed": 10285,
      "draft": 10286,
      "????????": 10287,
      "jj": 10288,
      "rich": 10289,
      "udo": 10290,
      "button": 10291,
      "ugly": 10292,
      "Pal": 10293,
      "ien": 10294,
      "ners": 10295,
      "maps": 10296,
      "OOBS": 10297,
      "Finally": 10298,
      "Bot": 10299,
      "FACK": 10300,
      "Canadian": 10301,
      "ibut": 10302,
      "adop": 10303,
      "Prof": 10304,
      "temporary": 10305,
      "FR": 10306,
      "flow": 10307,
      "formation": 10308,
      "contrary": 10309,
      "IGHT": 10310,
      "spirit": 10311,
      "ivity": 10312,
      "built": 10313,
      "LIKE": 10314,
      "honestly": 10315,
      "ین": 10316,
      "drive": 10317,
      "laws": 10318,
      "spacing": 10319,
      "64": 10320,
      "Bull": 10321,
      "desc": 10322,
      "Art": 10323,
      "arguing": 10324,
      "Empire": 10325,
      "Ry": 10326,
      "identify": 10327,
      "grammar": 10328,
      "AP": 10329,
      "CD": 10330,
      "systems": 10331,
      "Smith": 10332,
      "Bad": 10333,
      "rev": 10334,
      "restore": 10335,
      "STOP": 10336,
      "schools": 10337,
      "blatant": 10338,
      "BER": 10339,
      "Use": 10340,
      "bs": 10341,
      "nia": 10342,
      "useless": 10343,
      "disputes": 10344,
      "_talk": 10345,
      "yr": 10346,
      "hopefully": 10347,
      "films": 10348,
      "URDY": 10349,
      "hence": 10350,
      "aka": 10351,
      "portion": 10352,
      "players": 10353,
      "holder": 10354,
      "wanker": 10355,
      "mach": 10356,
      "zen": 10357,
      "ITOR": 10358,
      "waiting": 10359,
      "Ca": 10360,
      "Australian": 10361,
      "Ass": 10362,
      "Union": 10363,
      "engage": 10364,
      "naming": 10365,
      "Feat": 10366,
      "activity": 10367,
      "Two": 10368,
      "revis": 10369,
      "amaz": 10370,
      "Support": 10371,
      "spend": 10372,
      "Sex": 10373,
      "cip": 10374,
      "hang": 10375,
      "nar": 10376,
      "ams": 10377,
      "prose": 10378,
      "linking": 10379,
      "viron": 10380,
      "Instead": 10381,
      "Ba": 10382,
      "sake": 10383,
      "tim": 10384,
      "vere": 10385,
      "Anti": 10386,
      "strange": 10387,
      "Hun": 10388,
      "zy": 10389,
      "chi": 10390,
      "graphical": 10391,
      "repeat": 10392,
      "Otherwise": 10393,
      "lia": 10394,
      "colum": 10395,
      "cultural": 10396,
      "SCA": 10397,
      "67": 10398,
      "wishes": 10399,
      "student": 10400,
      "aint": 10401,
      "gov": 10402,
      "carefully": 10403,
      "Notability": 10404,
      "liberal": 10405,
      "cies": 10406,
      "ART": 10407,
      "................": 10408,
      "omin": 10409,
      "forth": 10410,
      "green": 10411,
      "mam": 10412,
      "bridge": 10413,
      "surv": 10414,
      "photograph": 10415,
      "dickhead": 10416,
      "responding": 10417,
      "Dar": 10418,
      "iers": 10419,
      "Thus": 10420,
      "sourcing": 10421,
      "served": 10422,
      "rowspan": 10423,
      "explicitly": 10424,
      "Jones": 10425,
      "hello": 10426,
      "AZ": 10427,
      "Wr": 10428,
      "_of": 10429,
      "cry": 10430,
      "Robert": 10431,
      "average": 10432,
      "industry": 10433,
      "radio": 10434,
      "AFD": 10435,
      "Mex": 10436,
      "els": 10437,
      "Green": 10438,
      "Turkish": 10439,
      "BAST": 10440,
      "ower": 10441,
      "violate": 10442,
      "credible": 10443,
      "ROM": 10444,
      "Addition": 10445,
      "Ira": 10446,
      "lived": 10447,
      "rewrite": 10448,
      "apart": 10449,
      "applies": 10450,
      "inside": 10451,
      "Review": 10452,
      "TRAITOR": 10453,
      "2nd": 10454,
      "sell": 10455,
      "College": 10456,
      "college": 10457,
      "OULD": 10458,
      "hands": 10459,
      "_of_": 10460,
      "Hal": 10461,
      "paste": 10462,
      "erson": 10463,
      "larger": 10464,
      "Brown": 10465,
      "County": 10466,
      "Our": 10467,
      "ona": 10468,
      "chart": 10469,
      "hr": 10470,
      "becoming": 10471,
      "projects": 10472,
      "BN": 10473,
      "ICK": 10474,
      "determ": 10475,
      "Wikimedia": 10476,
      "GET": 10477,
      "expected": 10478,
      "arbitration": 10479,
      "developed": 10480,
      "imagine": 10481,
      "OLE": 10482,
      "nav": 10483,
      "می": 10484,
      "ITE": 10485,
      "FL": 10486,
      "global": 10487,
      "BASTARD": 10488,
      "Vol": 10489,
      "rape": 10490,
      "commit": 10491,
      "RFC": 10492,
      "alter": 10493,
      "curity": 10494,
      "icted": 10495,
      "compared": 10496,
      "continues": 10497,
      "bra": 10498,
      "undo": 10499,
      "explo": 10500,
      "TALK": 10501,
      "riage": 10502,
      "trolling": 10503,
      "determine": 10504,
      "rees": 10505,
      "seven": 10506,
      "herent": 10507,
      "neutrality": 10508,
      "OUR": 10509,
      "Washing": 10510,
      "univers": 10511,
      "prev": 10512,
      "reporting": 10513,
      "Africa": 10514,
      "Unless": 10515,
      "improved": 10516,
      "fant": 10517,
      "utions": 10518,
      "signature": 10519,
      "Neutral": 10520,
      "CKS": 10521,
      "Pakistan": 10522,
      "?\"": 10523,
      "TIT": 10524,
      "lose": 10525,
      "Wil": 10526,
      "SHUT": 10527,
      "MOSCA": 10528,
      "university": 10529,
      "ruction": 10530,
      "Special": 10531,
      "BB": 10532,
      "portun": 10533,
      "friendly": 10534,
      "resolved": 10535,
      "challeng": 10536,
      "Egypt": 10537,
      "render": 10538,
      "Army": 10539,
      "specify": 10540,
      "NEIN": 10541,
      "nasty": 10542,
      "néger": 10543,
      "Hol": 10544,
      "tes": 10545,
      "estic": 10546,
      "registered": 10547,
      "Washington": 10548,
      "thy": 10549,
      "weren": 10550,
      "gots": 10551,
[...]
